{
  "version": "1.0",
  "truncation": null,
  "padding": null,
  "added_tokens": [
    {
      "id": 0,
      "content": "<pad>",
      "single_word": false,
      "lstrip": false,
      "rstrip": false,
      "normalized": false,
      "special": true
    },
    {
      "id": 1,
      "content": "<bos>",
      "single_word": false,
      "lstrip": false,
      "rstrip": false,
      "normalized": false,
      "special": true
    },
    {
      "id": 2,
      "content": "<eos>",
      "single_word": false,
      "lstrip": false,
      "rstrip": false,
      "normalized": false,
      "special": true
    }
  ],
  "normalizer": null,
  "pre_tokenizer": {
    "type": "Whitespace"
  },
  "post_processor": null,
  "decoder": null,
  "model": {
    "type": "BPE",
    "dropout": null,
    "unk_token": null,
    "continuing_subword_prefix": null,
    "end_of_word_suffix": null,
    "fuse_unk": false,
    "byte_fallback": false,
    "ignore_merges": false,
    "vocab": {
      "<pad>": 0,
      "<bos>": 1,
      "<eos>": 2,
      "!": 3,
      "\"": 4,
      "#": 5,
      "$": 6,
      "%": 7,
      "&": 8,
      "'": 9,
      "(": 10,
      ")": 11,
      "*": 12,
      "+": 13,
      ",": 14,
      "-": 15,
      ".": 16,
      "/": 17,
      "0": 18,
      "1": 19,
      "2": 20,
      "3": 21,
      "4": 22,
      "5": 23,
      "6": 24,
      "7": 25,
      "8": 26,
      "9": 27,
      ":": 28,
      ";": 29,
      "=": 30,
      "?": 31,
      "@": 32,
      "A": 33,
      "B": 34,
      "C": 35,
      "D": 36,
      "E": 37,
      "F": 38,
      "G": 39,
      "H": 40,
      "I": 41,
      "J": 42,
      "K": 43,
      "L": 44,
      "M": 45,
      "N": 46,
      "O": 47,
      "P": 48,
      "Q": 49,
      "R": 50,
      "S": 51,
      "T": 52,
      "U": 53,
      "V": 54,
      "W": 55,
      "X": 56,
      "Y": 57,
      "Z": 58,
      "\\": 59,
      "_": 60,
      "a": 61,
      "b": 62,
      "c": 63,
      "d": 64,
      "e": 65,
      "f": 66,
      "g": 67,
      "h": 68,
      "i": 69,
      "j": 70,
      "k": 71,
      "l": 72,
      "m": 73,
      "n": 74,
      "o": 75,
      "p": 76,
      "q": 77,
      "r": 78,
      "s": 79,
      "t": 80,
      "u": 81,
      "v": 82,
      "w": 83,
      "x": 84,
      "y": 85,
      "z": 86,
      "~": 87,
      "": 88,
      "£": 89,
      "¥": 90,
      "°": 91,
      "–": 92,
      "—": 93,
      "‘": 94,
      "’": 95,
      "“": 96,
      "”": 97,
      "′": 98,
      "、": 99,
      "。": 100,
      "th": 101,
      "ou": 102,
      "in": 103,
      "re": 104,
      "an": 105,
      "the": 106,
      "you": 107,
      "at": 108,
      "on": 109,
      "to": 110,
      "er": 111,
      "ll": 112,
      "or": 113,
      "me": 114,
      "ing": 115,
      "is": 116,
      "it": 117,
      "es": 118,
      "he": 119,
      "ve": 120,
      "se": 121,
      "st": 122,
      "ar": 123,
      "le": 124,
      "ow": 125,
      "ha": 126,
      "and": 127,
      "en": 128,
      "be": 129,
      "of": 130,
      "ay": 131,
      "ke": 132,
      "hat": 133,
      "ic": 134,
      "for": 135,
      "oo": 136,
      "as": 137,
      "al": 138,
      "ed": 139,
      "ld": 140,
      "all": 141,
      "so": 142,
      "we": 143,
      "have": 144,
      "wi": 145,
      "li": 146,
      "ch": 147,
      "do": 148,
      "ut": 149,
      "that": 150,
      "gh": 151,
      "ot": 152,
      "et": 153,
      "are": 154,
      "ver": 155,
      "id": 156,
      "co": 157,
      "ould": 158,
      "out": 159,
      "ri": 160,
      "ro": 161,
      "your": 162,
      "ght": 163,
      "ti": 164,
      "ab": 165,
      "ne": 166,
      "ac": 167,
      "can": 168,
      "ad": 169,
      "nt": 170,
      "ly": 171,
      "my": 172,
      "It": 173,
      "go": 174,
      "ir": 175,
      "one": 176,
      "like": 177,
      "We": 178,
      "nd": 179,
      "now": 180,
      "You": 181,
      "What": 182,
      "su": 183,
      "The": 184,
      "with": 185,
      "ter": 186,
      "am": 187,
      "ion": 188,
      "any": 189,
      "mo": 190,
      "this": 191,
      "ood": 192,
      "Yes": 193,
      "ink": 194,
      "ally": 195,
      "our": 196,
      "sh": 197,
      "ant": 198,
      "ust": 199,
      "ple": 200,
      "pe": 201,
      "some": 202,
      "about": 203,
      "very": 204,
      "get": 205,
      "ake": 206,
      "ce": 207,
      "thing": 208,
      "ry": 209,
      "fe": 210,
      "think": 211,
      "will": 212,
      "day": 213,
      "ag": 214,
      "wor": 215,
      "lo": 216,
      "if": 217,
      "here": 218,
      "us": 219,
      "te": 220,
      "don": 221,
      "not": 222,
      "know": 223,
      "Th": 224,
      "mp": 225,
      "ther": 226,
      "That": 227,
      "but": 228,
      "time": 229,
      "was": 230,
      "How": 231,
      "ank": 232,
      "ho": 233,
      "see": 234,
      "there": 235,
      "ur": 236,
      "ex": 237,
      "ook": 238,
      "ice": 239,
      "ind": 240,
      "ra": 241,
      "He": 242,
      "pp": 243,
      "de": 244,
      "ase": 245,
      "want": 246,
      "right": 247,
      "what": 248,
      "pro": 249,
      "just": 250,
      "ation": 251,
      "un": 252,
      "..": 253,
      "good": 254,
      "would": 255,
      "up": 256,
      "way": 257,
      "art": 258,
      "ent": 259,
      "Do": 260,
      "Well": 261,
      "pl": 262,
      "ment": 263,
      "No": 264,
      "ard": 265,
      "per": 266,
      "mu": 267,
      "too": 268,
      "ast": 269,
      "hi": 270,
      "work": 271,
      "con": 272,
      "ive": 273,
      "ate": 274,
      "no": 275,
      "ight": 276,
      "But": 277,
      "need": 278,
      "qu": 279,
      "end": 280,
      "really": 281,
      "use": 282,
      "Oh": 283,
      "ea": 284,
      "ine": 285,
      "ill": 286,
      "ul": 287,
      "ong": 288,
      "much": 289,
      "hen": 290,
      "ge": 291,
      "ain": 292,
      "ure": 293,
      "did": 294,
      "they": 295,
      "ct": 296,
      "po": 297,
      "ess": 298,
      "Thank": 299,
      "take": 300,
      "rom": 301,
      "ble": 302,
      "going": 303,
      "el": 304,
      "ak": 305,
      "ck": 306,
      "il": 307,
      "look": 308,
      "af": 309,
      "ound": 310,
      "est": 311,
      "from": 312,
      "ack": 313,
      "res": 314,
      "come": 315,
      "please": 316,
      "ame": 317,
      "hy": 318,
      "should": 319,
      "ig": 320,
      "comp": 321,
      "ite": 322,
      "ort": 323,
      "ye": 324,
      "more": 325,
      "jo": 326,
      "red": 327,
      "got": 328,
      "ning": 329,
      "off": 330,
      "tion": 331,
      "them": 332,
      "tr": 333,
      "hel": 334,
      "And": 335,
      "new": 336,
      "reat": 337,
      "other": 338,
      "che": 339,
      "sp": 340,
      "mor": 341,
      "So": 342,
      "help": 343,
      "been": 344,
      "cou": 345,
      "ers": 346,
      "how": 347,
      "ree": 348,
      "ave": 349,
      "ity": 350,
      "able": 351,
      "bo": 352,
      "Is": 353,
      "by": 354,
      "make": 355,
      "ish": 356,
      "part": 357,
      "could": 358,
      "ople": 359,
      "mb": 360,
      "Can": 361,
      "pr": 362,
      "oom": 363,
      "bu": 364,
      "act": 365,
      "ars": 366,
      "her": 367,
      "...": 368,
      "own": 369,
      "sure": 370,
      "over": 371,
      "eve": 372,
      "tw": 373,
      "fo": 374,
      "pre": 375,
      "has": 376,
      "com": 377,
      "when": 378,
      "ous": 379,
      "si": 380,
      "OK": 381,
      "lot": 382,
      "cl": 383,
      "people": 384,
      "ie": 385,
      "rest": 386,
      "she": 387,
      "room": 388,
      "ek": 389,
      "read": 390,
      "ty": 391,
      "00": 392,
      "ten": 393,
      "then": 394,
      "call": 395,
      "ep": 396,
      "week": 397,
      "every": 398,
      "ci": 399,
      "ass": 400,
      "count": 401,
      "irst": 402,
      "bus": 403,
      "gu": 404,
      "man": 405,
      "well": 406,
      "age": 407,
      "ough": 408,
      "had": 409,
      "tell": 410,
      "Let": 411,
      "orry": 412,
      "av": 413,
      "spe": 414,
      "long": 415,
      "let": 416,
      "They": 417,
      "ick": 418,
      "bet": 419,
      "ca": 420,
      "does": 421,
      "cour": 422,
      "Why": 423,
      "say": 424,
      "back": 425,
      "und": 426,
      "great": 427,
      "eah": 428,
      "If": 429,
      "row": 430,
      "give": 431,
      "My": 432,
      "after": 433,
      "lf": 434,
      "ide": 435,
      "him": 436,
      "Are": 437,
      "There": 438,
      "sto": 439,
      "May": 440,
      "ies": 441,
      "der": 442,
      "ma": 443,
      "blem": 444,
      "problem": 445,
      "br": 446,
      "Ch": 447,
      "app": 448,
      "fore": 449,
      "first": 450,
      "ist": 451,
      "two": 452,
      "only": 453,
      "mber": 454,
      "pay": 455,
      "job": 456,
      "tra": 457,
      "ance": 458,
      "sa": 459,
      "mon": 460,
      "Here": 461,
      "gl": 462,
      "won": 463,
      "tle": 464,
      "many": 465,
      "ace": 466,
      "This": 467,
      "ich": 468,
      "kind": 469,
      "gr": 470,
      "min": 471,
      "course": 472,
      "sir": 473,
      "something": 474,
      "Yeah": 475,
      "fri": 476,
      "ud": 477,
      "most": 478,
      "try": 479,
      "alk": 480,
      "ary": 481,
      "ket": 482,
      "Sure": 483,
      "Good": 484,
      "xt": 485,
      "also": 486,
      "his": 487,
      "sit": 488,
      "oney": 489,
      "lit": 490,
      "today": 491,
      "company": 492,
      "find": 493,
      "mean": 494,
      "feel": 495,
      "didn": 496,
      "ool": 497,
      "last": 498,
      "Ok": 499,
      "ving": 500,
      "yes": 501,
      "ser": 502,
      "were": 503,
      "ose": 504,
      "ater": 505,
      "anything": 506,
      "sorry": 507,
      "better": 508,
      "pen": 509,
      "happ": 510,
      "Mr": 511,
      "meet": 512,
      "love": 513,
      "buy": 514,
      "du": 515,
      "next": 516,
      "ways": 517,
      "mer": 518,
      "ought": 519,
      "where": 520,
      "chan": 521,
      "car": 522,
      "who": 523,
      "ked": 524,
      "than": 525,
      "Would": 526,
      "ms": 527,
      "clo": 528,
      "cause": 529,
      "ting": 530,
      "Have": 531,
      "friend": 532,
      "She": 533,
      "must": 534,
      "little": 535,
      "bl": 536,
      "Don": 537,
      "check": 538,
      "down": 539,
      "di": 540,
      "inter": 541,
      "hich": 542,
      "morning": 543,
      "wr": 544,
      "play": 545,
      "ign": 546,
      "before": 547,
      "money": 548,
      "Thanks": 549,
      "ounds": 550,
      "fin": 551,
      "mar": 552,
      "always": 553,
      "ready": 554,
      "rent": 555,
      "ise": 556,
      "month": 557,
      "urn": 558,
      "dif": 559,
      "atch": 560,
      "inte": 561,
      "air": 562,
      "imp": 563,
      "Chin": 564,
      "start": 565,
      "may": 566,
      "name": 567,
      "interest": 568,
      "When": 569,
      "nu": 570,
      "nice": 571,
      "int": 572,
      "ese": 573,
      "ade": 574,
      "home": 575,
      "ful": 576,
      "vie": 577,
      "Ve": 578,
      "ans": 579,
      "tor": 580,
      "put": 581,
      "ert": 582,
      "Re": 583,
      "things": 584,
      "ue": 585,
      "ress": 586,
      "ait": 587,
      "night": 588,
      "self": 589,
      "ask": 590,
      "days": 591,
      "ach": 592,
      "hard": 593,
      "Did": 594,
      "again": 595,
      "thank": 596,
      "morrow": 597,
      "son": 598,
      "form": 599,
      "ner": 600,
      "dr": 601,
      "aking": 602,
      "Where": 603,
      "dis": 604,
      "still": 605,
      "minut": 606,
      "few": 607,
      "fic": 608,
      "these": 609,
      "ang": 610,
      "stand": 611,
      "lease": 612,
      "class": 613,
      "into": 614,
      "la": 615,
      "ren": 616,
      "All": 617,
      "mind": 618,
      "their": 619,
      "food": 620,
      "never": 621,
      "tomorrow": 622,
      "ven": 623,
      "year": 624,
      "idea": 625,
      "cor": 626,
      "In": 627,
      "ever": 628,
      "care": 629,
      "ps": 630,
      "ph": 631,
      "bad": 632,
      "hour": 633,
      "Could": 634,
      "ny": 635,
      "Of": 636,
      "ss": 637,
      "En": 638,
      "bit": 639,
      "Then": 640,
      "lear": 641,
      "pt": 642,
      "show": 643,
      "mis": 644,
      "card": 645,
      "under": 646,
      "best": 647,
      "sch": 648,
      "stud": 649,
      "why": 650,
      "big": 651,
      "Just": 652,
      "Not": 653,
      "Please": 654,
      "ouse": 655,
      "ild": 656,
      "old": 657,
      "keep": 658,
      "ton": 659,
      "else": 660,
      "ction": 661,
      "light": 662,
      "ily": 663,
      "because": 664,
      "three": 665,
      "book": 666,
      "Be": 667,
      "tri": 668,
      "lu": 669,
      "talk": 670,
      "school": 671,
      "doing": 672,
      "ually": 673,
      "ious": 674,
      "turn": 675,
      "wait": 676,
      "change": 677,
      "years": 678,
      "fam": 679,
      "iness": 680,
      "quite": 681,
      "sho": 682,
      "fine": 683,
      "around": 684,
      "doll": 685,
      "ru": 686,
      "Engl": 687,
      "eat": 688,
      "pa": 689,
      "Co": 690,
      "hand": 691,
      "gg": 692,
      "plan": 693,
      "hope": 694,
      "ail": 695,
      "sal": 696,
      "late": 697,
      "lic": 698,
      "raid": 699,
      "ves": 700,
      "high": 701,
      "afraid": 702,
      "Really": 703,
      "house": 704,
      "place": 705,
      "llo": 706,
      "diffe": 707,
      "cial": 708,
      "ence": 709,
      "times": 710,
      "working": 711,
      "To": 712,
      "vis": 713,
      "partment": 714,
      "cent": 715,
      "posit": 716,
      "fer": 717,
      "made": 718,
      "im": 719,
      "hot": 720,
      "arge": 721,
      "ash": 722,
      "ear": 723,
      "looking": 724,
      "English": 725,
      "sm": 726,
      "ather": 727,
      "Maybe": 728,
      "number": 729,
      "thought": 730,
      "stay": 731,
      "usu": 732,
      "business": 733,
      "office": 734,
      "supp": 735,
      "les": 736,
      "drink": 737,
      "sounds": 738,
      "Hello": 739,
      "isn": 740,
      "Ex": 741,
      "doesn": 742,
      "ze": 743,
      "ertain": 744,
      "order": 745,
      "side": 746,
      "eas": 747,
      "set": 748,
      "even": 749,
      "joy": 750,
      "said": 751,
      "sur": 752,
      "ark": 753,
      "each": 754,
      "soon": 755,
      "happen": 756,
      "ull": 757,
      "another": 758,
      "ft": 759,
      "Chinese": 760,
      "cond": 761,
      "its": 762,
      "hile": 763,
      "dollars": 764,
      "price": 765,
      "Hi": 766,
      "phone": 767,
      "same": 768,
      "akes": 769,
      "which": 770,
      "noon": 771,
      "mat": 772,
      "haven": 773,
      "live": 774,
      "minutes": 775,
      "sk": 776,
      "vice": 777,
      "enjoy": 778,
      "des": 779,
      "cre": 780,
      "din": 781,
      "dri": 782,
      "view": 783,
      "Now": 784,
      "sha": 785,
      "low": 786,
      "person": 787,
      "hear": 788,
      "ap": 789,
      "ef": 790,
      "bab": 791,
      "line": 792,
      "account": 793,
      "sing": 794,
      "ated": 795,
      "done": 796,
      "sed": 797,
      "such": 798,
      "peri": 799,
      "while": 800,
      "bre": 801,
      "might": 802,
      "wonder": 803,
      "usually": 804,
      "tic": 805,
      "tty": 806,
      "import": 807,
      "cle": 808,
      "ition": 809,
      "dec": 810,
      "guess": 811,
      "watch": 812,
      "heard": 813,
      "already": 814,
      "afternoon": 815,
      "fi": 816,
      "used": 817,
      "lieve": 818,
      "add": 819,
      "different": 820,
      "ertainly": 821,
      "member": 822,
      "yet": 823,
      "head": 824,
      "ations": 825,
      "leave": 826,
      "enough": 827,
      "getting": 828,
      "rough": 829,
      "coming": 830,
      "everything": 831,
      "ular": 832,
      "10": 833,
      "estion": 834,
      "Your": 835,
      "Any": 836,
      "um": 837,
      "ste": 838,
      "pare": 839,
      "comput": 840,
      "aut": 841,
      "produ": 842,
      "table": 843,
      "bring": 844,
      "fun": 845,
      "gir": 846,
      "cus": 847,
      "lle": 848,
      "five": 849,
      "worry": 850,
      "Will": 851,
      "ip": 852,
      "cost": 853,
      "those": 854,
      "Okay": 855,
      "ticket": 856,
      "ical": 857,
      "vers": 858,
      "pretty": 859,
      "port": 860,
      "hed": 861,
      "fect": 862,
      "looks": 863,
      "train": 864,
      "away": 865,
      "uan": 866,
      "inv": 867,
      "dy": 868,
      "fee": 869,
      "beaut": 870,
      "ts": 871,
      "sport": 872,
      "sible": 873,
      "friends": 874,
      "ding": 875,
      "open": 876,
      "doc": 877,
      "important": 878,
      "free": 879,
      "believe": 880,
      "ments": 881,
      "vel": 882,
      "sign": 883,
      "sent": 884,
      "meeting": 885,
      "through": 886,
      "cont": 887,
      "small": 888,
      "understand": 889,
      "reg": 890,
      "tonight": 891,
      "often": 892,
      "special": 893,
      "mi": 894,
      "offer": 895,
      "full": 896,
      "als": 897,
      "cho": 898,
      "happy": 899,
      "cy": 900,
      "rece": 901,
      "dinner": 902,
      "For": 903,
      "pens": 904,
      "mm": 905,
      "cess": 906,
      "ason": 907,
      "wrong": 908,
      "later": 909,
      "family": 910,
      "run": 911,
      "gether": 912,
      "together": 913,
      "child": 914,
      "bro": 915,
      "rid": 916,
      "pect": 917,
      "ult": 918,
      "lor": 919,
      "oh": 920,
      "Amer": 921,
      "far": 922,
      "Americ": 923,
      "city": 924,
      "Some": 925,
      "left": 926,
      "learn": 927,
      "inform": 928,
      "ee": 929,
      "computer": 930,
      "bed": 931,
      "Al": 932,
      "cuse": 933,
      "agree": 934,
      "expens": 935,
      "easy": 936,
      "thanks": 937,
      "au": 938,
      "med": 939,
      "less": 940,
      "send": 941,
      "ball": 942,
      "colle": 943,
      "ward": 944,
      "men": 945,
      "party": 946,
      "went": 947,
      "Which": 948,
      "cur": 949,
      "real": 950,
      "fast": 951,
      "je": 952,
      "beautif": 953,
      "country": 954,
      "speak": 955,
      "iting": 956,
      "evening": 957,
      "ok": 958,
      "ried": 959,
      "ities": 960,
      "Look": 961,
      "cred": 962,
      "ery": 963,
      "nts": 964,
      "market": 965,
      "beautiful": 966,
      "fill": 967,
      "str": 968,
      "move": 969,
      "suppose": 970,
      "mus": 971,
      "experi": 972,
      "kid": 973,
      "moment": 974,
      "Sorry": 975,
      "seems": 976,
      "ces": 977,
      "bably": 978,
      "stop": 979,
      "miss": 980,
      "walk": 981,
      "lcome": 982,
      "hours": 983,
      "mplo": 984,
      "question": 985,
      "St": 986,
      "life": 987,
      "bor": 988,
      "pos": 989,
      "avor": 990,
      "Mo": 991,
      "ouble": 992,
      "told": 993,
      "prefer": 994,
      "service": 995,
      "Great": 996,
      "wo": 997,
      "having": 998,
      "Who": 999,
      "ince": 1000,
      "teach": 1001,
      "four": 1002,
      "interested": 1003,
      "alth": 1004,
      "cut": 1005,
      "game": 1006,
      "reser": 1007,
      "true": 1008,
      "remember": 1009,
      "cept": 1010,
      "information": 1011,
      "til": 1012,
      "expensive": 1013,
      "offee": 1014,
      "aur": 1015,
      "king": 1016,
      "someone": 1017,
      "ount": 1018,
      "ited": 1019,
      "study": 1020,
      "girl": 1021,
      "myself": 1022,
      "interesting": 1023,
      "break": 1024,
      "yourself": 1025,
      "weekend": 1026,
      "Hey": 1027,
      "Excuse": 1028,
      "ago": 1029,
      "led": 1030,
      "bank": 1031,
      "sen": 1032,
      "glad": 1033,
      "nothing": 1034,
      "ta": 1035,
      "world": 1036,
      "qui": 1037,
      "body": 1038,
      "20": 1039,
      "ating": 1040,
      "water": 1041,
      "movie": 1042,
      "000": 1043,
      "net": 1044,
      "top": 1045,
      "China": 1046,
      "coffee": 1047,
      "interview": 1048,
      "pu": 1049,
      "actually": 1050,
      "mail": 1051,
      "Come": 1052,
      "being": 1053,
      "ices": 1054,
      "pping": 1055,
      "both": 1056,
      "unch": 1057,
      "Does": 1058,
      "seat": 1059,
      "until": 1060,
      "qual": 1061,
      "ivers": 1062,
      "charge": 1063,
      "thinking": 1064,
      "Wow": 1065,
      "ict": 1066,
      "aurant": 1067,
      "ship": 1068,
      "ager": 1069,
      "att": 1070,
      "probably": 1071,
      "ger": 1072,
      "thir": 1073,
      "reet": 1074,
      "expect": 1075,
      "ob": 1076,
      "ries": 1077,
      "exam": 1078,
      "spend": 1079,
      "music": 1080,
      "50": 1081,
      "cha": 1082,
      "ian": 1083,
      "ient": 1084,
      "ages": 1085,
      "favor": 1086,
      "product": 1087,
      "By": 1088,
      "bag": 1089,
      "called": 1090,
      "busy": 1091,
      "maybe": 1092,
      "cell": 1093,
      "30": 1094,
      "fr": 1095,
      "guy": 1096,
      "iz": 1097,
      "rain": 1098,
      "actly": 1099,
      "Ne": 1100,
      "yuan": 1101,
      "na": 1102,
      "ings": 1103,
      "cold": 1104,
      "bir": 1105,
      "second": 1106,
      "case": 1107,
      "though": 1108,
      "atur": 1109,
      "terday": 1110,
      "Act": 1111,
      "sle": 1112,
      "smo": 1113,
      "apartment": 1114,
      "restaurant": 1115,
      "ates": 1116,
      "Actually": 1117,
      "pick": 1118,
      "sol": 1119,
      "clock": 1120,
      "pri": 1121,
      "luck": 1122,
      "experience": 1123,
      "ath": 1124,
      "arm": 1125,
      "near": 1126,
      "beg": 1127,
      "wear": 1128,
      "matter": 1129,
      "six": 1130,
      "credit": 1131,
      "sever": 1132,
      "As": 1133,
      "oint": 1134,
      "emplo": 1135,
      "half": 1136,
      "found": 1137,
      "paper": 1138,
      "seen": 1139,
      "mach": 1140,
      "possible": 1141,
      "gy": 1142,
      "position": 1143,
      "Every": 1144,
      "sub": 1145,
      "suit": 1146,
      "flight": 1147,
      "weather": 1148,
      "sum": 1149,
      "sugg": 1150,
      "health": 1151,
      "happened": 1152,
      "cam": 1153,
      "parents": 1154,
      "wife": 1155,
      "several": 1156,
      "fre": 1157,
      "color": 1158,
      "boss": 1159,
      "yesterday": 1160,
      "iversity": 1161,
      "ange": 1162,
      "llow": 1163,
      "pres": 1164,
      "az": 1165,
      "hotel": 1166,
      "incl": 1167,
      "ides": 1168,
      "cash": 1169,
      "weeks": 1170,
      "cook": 1171,
      "ele": 1172,
      "trip": 1173,
      "hur": 1174,
      "almost": 1175,
      "terri": 1176,
      "clean": 1177,
      "cri": 1178,
      "serious": 1179,
      "ia": 1180,
      "ds": 1181,
      "taking": 1182,
      "mend": 1183,
      "Certainly": 1184,
      "thes": 1185,
      "ones": 1186,
      "ai": 1187,
      "cer": 1188,
      "ished": 1189,
      "short": 1190,
      "vac": 1191,
      "deal": 1192,
      "wish": 1193,
      "appoint": 1194,
      "Un": 1195,
      "band": 1196,
      "ption": 1197,
      "On": 1198,
      "bought": 1199,
      "ters": 1200,
      "doctor": 1201,
      "lat": 1202,
      "aren": 1203,
      "Li": 1204,
      "New": 1205,
      "avail": 1206,
      "large": 1207,
      "erc": 1208,
      "Our": 1209,
      "fil": 1210,
      "wanted": 1211,
      "Go": 1212,
      "bill": 1213,
      "cr": 1214,
      "ines": 1215,
      "travel": 1216,
      "pass": 1217,
      "Fine": 1218,
      "makes": 1219,
      "pie": 1220,
      "hair": 1221,
      "student": 1222,
      "birth": 1223,
      "par": 1224,
      "sell": 1225,
      "loc": 1226,
      "department": 1227,
      "commend": 1228,
      "date": 1229,
      "pleas": 1230,
      "present": 1231,
      "gen": 1232,
      "reason": 1233,
      "prom": 1234,
      "val": 1235,
      "Joh": 1236,
      "hu": 1237,
      "park": 1238,
      "team": 1239,
      "perfect": 1240,
      "manager": 1241,
      "John": 1242,
      "Right": 1243,
      "ither": 1244,
      "rect": 1245,
      "oose": 1246,
      "pop": 1247,
      "clothes": 1248,
      "Mary": 1249,
      "once": 1250,
      "diffic": 1251,
      "isten": 1252,
      "pack": 1253,
      "pas": 1254,
      "recommend": 1255,
      "gram": 1256,
      "One": 1257,
      "available": 1258,
      "came": 1259,
      "ff": 1260,
      "main": 1261,
      "ved": 1262,
      "exerc": 1263,
      "rather": 1264,
      "size": 1265,
      "At": 1266,
      "wn": 1267,
      "welcome": 1268,
      "road": 1269,
      "uring": 1270,
      "pon": 1271,
      "arr": 1272,
      "exc": 1273,
      "sy": 1274,
      "trans": 1275,
      "jing": 1276,
      "pain": 1277,
      "ures": 1278,
      "cli": 1279,
      "gi": 1280,
      "Frid": 1281,
      "tract": 1282,
      "saw": 1283,
      "Sh": 1284,
      "sou": 1285,
      "ational": 1286,
      "custo": 1287,
      "See": 1288,
      "list": 1289,
      "months": 1290,
      "minute": 1291,
      "talking": 1292,
      "Friday": 1293,
      "tour": 1294,
      "wind": 1295,
      "lost": 1296,
      "comes": 1297,
      "mit": 1298,
      "ject": 1299,
      "reserv": 1300,
      "ics": 1301,
      "write": 1302,
      "early": 1303,
      "conf": 1304,
      "begin": 1305,
      "Ab": 1306,
      "fac": 1307,
      "ident": 1308,
      "wouldn": 1309,
      "cons": 1310,
      "children": 1311,
      "bar": 1312,
      "tive": 1313,
      "calling": 1314,
      "swe": 1315,
      "tory": 1316,
      "Mon": 1317,
      "stu": 1318,
      "ided": 1319,
      "hold": 1320,
      "visit": 1321,
      "accept": 1322,
      "everyone": 1323,
      "started": 1324,
      "ring": 1325,
      "char": 1326,
      "TV": 1327,
      "ced": 1328,
      "tast": 1329,
      "dra": 1330,
      "fit": 1331,
      "reci": 1332,
      "married": 1333,
      "An": 1334,
      "since": 1335,
      "tal": 1336,
      "Smi": 1337,
      "key": 1338,
      "sleep": 1339,
      "Af": 1340,
      "making": 1341,
      "aw": 1342,
      "aper": 1343,
      "det": 1344,
      "exactly": 1345,
      "books": 1346,
      "After": 1347,
      "hon": 1348,
      "point": 1349,
      "summer": 1350,
      "sty": 1351,
      "least": 1352,
      "Smith": 1353,
      "ijing": 1354,
      "undred": 1355,
      "grad": 1356,
      "Beijing": 1357,
      "hite": 1358,
      "hundred": 1359,
      "deposit": 1360,
      "birthday": 1361,
      "15": 1362,
      "mil": 1363,
      "wasn": 1364,
      "lunch": 1365,
      "ork": 1366,
      "street": 1367,
      "along": 1368,
      "took": 1369,
      "boy": 1370,
      "trying": 1371,
      "oot": 1372,
      "cially": 1373,
      "couldn": 1374,
      "lan": 1375,
      "return": 1376,
      "haps": 1377,
      "news": 1378,
      "dress": 1379,
      "enter": 1380,
      "build": 1381,
      "sales": 1382,
      "favorite": 1383,
      "bye": 1384,
      "ol": 1385,
      "iss": 1386,
      "flo": 1387,
      "ng": 1388,
      "rate": 1389,
      "choose": 1390,
      "whole": 1391,
      "ions": 1392,
      "solut": 1393,
      "problems": 1394,
      "products": 1395,
      "ital": 1396,
      "seven": 1397,
      "program": 1398,
      "living": 1399,
      "tea": 1400,
      "zy": 1401,
      "quick": 1402,
      "says": 1403,
      "shopping": 1404,
      "test": 1405,
      "mother": 1406,
      "face": 1407,
      "ses": 1408,
      "resu": 1409,
      "couple": 1410,
      "comple": 1411,
      "Per": 1412,
      "allow": 1413,
      "reservation": 1414,
      "De": 1415,
      "ted": 1416,
      "appreci": 1417,
      "fact": 1418,
      "tired": 1419,
      "difficult": 1420,
      "bas": 1421,
      "certainly": 1422,
      "prof": 1423,
      "ues": 1424,
      "ider": 1425,
      "during": 1426,
      "without": 1427,
      "Very": 1428,
      "town": 1429,
      "seem": 1430,
      "mas": 1431,
      "wonderful": 1432,
      "Take": 1433,
      "store": 1434,
      "report": 1435,
      "board": 1436,
      "door": 1437,
      "weight": 1438,
      "drive": 1439,
      "leav": 1440,
      "exercise": 1441,
      "Me": 1442,
      "Sounds": 1443,
      "bi": 1444,
      "forget": 1445,
      "ility": 1446,
      "First": 1447,
      "fif": 1448,
      "listen": 1449,
      "ooked": 1450,
      "chance": 1451,
      "gre": 1452,
      "ext": 1453,
      "respon": 1454,
      "rel": 1455,
      "trouble": 1456,
      "surance": 1457,
      "cellent": 1458,
      "appointment": 1459,
      "12": 1460,
      "cas": 1461,
      "arri": 1462,
      "tried": 1463,
      "Te": 1464,
      "pict": 1465,
      "post": 1466,
      "box": 1467,
      "rence": 1468,
      "consider": 1469,
      "stra": 1470,
      "sometimes": 1471,
      "conven": 1472,
      "chang": 1473,
      "floor": 1474,
      "contract": 1475,
      "bot": 1476,
      "catch": 1477,
      "Satur": 1478,
      "land": 1479,
      "Tom": 1480,
      "includ": 1481,
      "condition": 1482,
      "father": 1483,
      "sche": 1484,
      "ately": 1485,
      "American": 1486,
      "either": 1487,
      "worked": 1488,
      "Anything": 1489,
      "supposed": 1490,
      "ffic": 1491,
      "jor": 1492,
      "apply": 1493,
      "insurance": 1494,
      "ister": 1495,
      "popular": 1496,
      "cup": 1497,
      "whe": 1498,
      "icken": 1499,
      "tax": 1500,
      "pleasure": 1501,
      "major": 1502,
      "feeling": 1503,
      "paid": 1504,
      "IB": 1505,
      "opp": 1506,
      "espe": 1507,
      "means": 1508,
      "salary": 1509,
      "decided": 1510,
      "shall": 1511,
      "ju": 1512,
      "pan": 1513,
      "pur": 1514,
      "pend": 1515,
      "fully": 1516,
      "recei": 1517,
      "teacher": 1518,
      "ont": 1519,
      "finite": 1520,
      "hus": 1521,
      "ins": 1522,
      "receive": 1523,
      "thirty": 1524,
      "husband": 1525,
      "past": 1526,
      "mess": 1527,
      "asked": 1528,
      "sun": 1529,
      "lt": 1530,
      "sick": 1531,
      "esides": 1532,
      "adam": 1533,
      "university": 1534,
      "rooms": 1535,
      "100": 1536,
      "ial": 1537,
      "igh": 1538,
      "ness": 1539,
      "vir": 1540,
      "vide": 1541,
      "hall": 1542,
      "Saturday": 1543,
      "Ro": 1544,
      "ween": 1545,
      "ote": 1546,
      "Because": 1547,
      "foot": 1548,
      "wine": 1549,
      "lose": 1550,
      "extra": 1551,
      "Chr": 1552,
      "dance": 1553,
      "fish": 1554,
      "needs": 1555,
      "langu": 1556,
      "cra": 1557,
      "Br": 1558,
      "winter": 1559,
      "met": 1560,
      "college": 1561,
      "suggest": 1562,
      "appreciate": 1563,
      "cop": 1564,
      "enty": 1565,
      "twenty": 1566,
      "letter": 1567,
      "questions": 1568,
      "employe": 1569,
      "rela": 1570,
      "pped": 1571,
      "solute": 1572,
      "relax": 1573,
      "pair": 1574,
      "ature": 1575,
      "gets": 1576,
      "astic": 1577,
      "waiting": 1578,
      "national": 1579,
      "ping": 1580,
      "yeah": 1581,
      "goes": 1582,
      "traffic": 1583,
      "dish": 1584,
      "ator": 1585,
      "forgot": 1586,
      "between": 1587,
      "finish": 1588,
      "quality": 1589,
      "especially": 1590,
      "sof": 1591,
      "attend": 1592,
      "terrible": 1593,
      "eight": 1594,
      "outside": 1595,
      "personal": 1596,
      "vacation": 1597,
      "Miss": 1598,
      "uc": 1599,
      "forward": 1600,
      "partic": 1601,
      "fall": 1602,
      "recent": 1603,
      "follow": 1604,
      "foreign": 1605,
      "gradu": 1606,
      "chicken": 1607,
      "teen": 1608,
      "por": 1609,
      "arch": 1610,
      "hate": 1611,
      "holi": 1612,
      "inst": 1613,
      "finished": 1614,
      "cool": 1615,
      "stuff": 1616,
      "gra": 1617,
      "solutely": 1618,
      "adv": 1619,
      "depend": 1620,
      "pract": 1621,
      "prepare": 1622,
      "close": 1623,
      "ahead": 1624,
      "join": 1625,
      "fresh": 1626,
      "mine": 1627,
      "black": 1628,
      "os": 1629,
      "treat": 1630,
      "ub": 1631,
      "ortun": 1632,
      "machine": 1633,
      "gs": 1634,
      "kids": 1635,
      "Int": 1636,
      "ier": 1637,
      "ling": 1638,
      "pho": 1639,
      "medi": 1640,
      "eng": 1641,
      "kinds": 1642,
      "fair": 1643,
      "draw": 1644,
      "fig": 1645,
      "style": 1646,
      "kes": 1647,
      "young": 1648,
      "tele": 1649,
      "shop": 1650,
      "schedu": 1651,
      "gar": 1652,
      "ield": 1653,
      "sale": 1654,
      "playing": 1655,
      "stead": 1656,
      "deli": 1657,
      "swi": 1658,
      "fort": 1659,
      "type": 1660,
      "publ": 1661,
      "finitely": 1662,
      "ousand": 1663,
      "smoking": 1664,
      "Nice": 1665,
      "clear": 1666,
      "mag": 1667,
      "save": 1668,
      "vo": 1669,
      "single": 1670,
      "aught": 1671,
      "cks": 1672,
      "ls": 1673,
      "syste": 1674,
      "About": 1675,
      "ons": 1676,
      "aken": 1677,
      "reading": 1678,
      "speaking": 1679,
      "fl": 1680,
      "takes": 1681,
      "window": 1682,
      "online": 1683,
      "using": 1684,
      "exp": 1685,
      "fix": 1686,
      "gif": 1687,
      "thousand": 1688,
      "enti": 1689,
      "mov": 1690,
      "sports": 1691,
      "America": 1692,
      "honest": 1693,
      "receipt": 1694,
      "ili": 1695,
      "excellent": 1696,
      "discus": 1697,
      "law": 1698,
      "suc": 1699,
      "pol": 1700,
      "discount": 1701,
      "okay": 1702,
      "200": 1703,
      "amount": 1704,
      "docu": 1705,
      "building": 1706,
      "da": 1707,
      "ize": 1708,
      "sound": 1709,
      "total": 1710,
      "Tell": 1711,
      "movies": 1712,
      "cover": 1713,
      "nty": 1714,
      "dro": 1715,
      "address": 1716,
      "fash": 1717,
      "ual": 1718,
      "ude": 1719,
      "decis": 1720,
      "kit": 1721,
      "veget": 1722,
      "goods": 1723,
      "Alright": 1724,
      "Ac": 1725,
      "RIB": 1726,
      "eyes": 1727,
      "temp": 1728,
      "tickets": 1729,
      "front": 1730,
      "transfer": 1731,
      "chen": 1732,
      "taken": 1733,
      "une": 1734,
      "tern": 1735,
      "plac": 1736,
      "brother": 1737,
      "Perhaps": 1738,
      "wed": 1739,
      "white": 1740,
      "become": 1741,
      "Sir": 1742,
      "cing": 1743,
      "convenient": 1744,
      "Christ": 1745,
      "ctor": 1746,
      "sc": 1747,
      "requi": 1748,
      "anyway": 1749,
      "countries": 1750,
      "irt": 1751,
      "passport": 1752,
      "Monday": 1753,
      "York": 1754,
      "field": 1755,
      "pet": 1756,
      "ref": 1757,
      "ross": 1758,
      "pin": 1759,
      "wants": 1760,
      "fa": 1761,
      "anyone": 1762,
      "photo": 1763,
      "fashion": 1764,
      "dan": 1765,
      "kidding": 1766,
      "gener": 1767,
      "complete": 1768,
      "flow": 1769,
      "mid": 1770,
      "ables": 1771,
      "choice": 1772,
      "sense": 1773,
      "Inter": 1774,
      "kitchen": 1775,
      "Tr": 1776,
      "Wait": 1777,
      "double": 1778,
      "nor": 1779,
      "wan": 1780,
      "velo": 1781,
      "station": 1782,
      "seeing": 1783,
      "Sometimes": 1784,
      "straight": 1785,
      "25": 1786,
      "ied": 1787,
      "super": 1788,
      "tention": 1789,
      "ountain": 1790,
      "lucky": 1791,
      "sort": 1792,
      "ties": 1793,
      "shoes": 1794,
      "medic": 1795,
      "recently": 1796,
      "Jan": 1797,
      "od": 1798,
      "instead": 1799,
      "lead": 1800,
      "surpr": 1801,
      "design": 1802,
      "detail": 1803,
      "Ah": 1804,
      "Fr": 1805,
      "planning": 1806,
      "opportun": 1807,
      "system": 1808,
      "ken": 1809,
      "ouch": 1810,
      "famous": 1811,
      "Ste": 1812,
      "ber": 1813,
      "hit": 1814,
      "leaving": 1815,
      "Besides": 1816,
      "gone": 1817,
      "ith": 1818,
      "worth": 1819,
      "ific": 1820,
      "wash": 1821,
      "answ": 1822,
      "watching": 1823,
      "neigh": 1824,
      "others": 1825,
      "manage": 1826,
      "strong": 1827,
      "sat": 1828,
      "vert": 1829,
      "irm": 1830,
      "ants": 1831,
      "ills": 1832,
      "ben": 1833,
      "project": 1834,
      "ulations": 1835,
      "internet": 1836,
      "applic": 1837,
      "sib": 1838,
      "sister": 1839,
      "var": 1840,
      "handle": 1841,
      "taste": 1842,
      "US": 1843,
      "hor": 1844,
      "recor": 1845,
      "educ": 1846,
      "lovely": 1847,
      "Christmas": 1848,
      "grow": 1849,
      "ground": 1850,
      "piece": 1851,
      "public": 1852,
      "ster": 1853,
      "training": 1854,
      "crazy": 1855,
      "Bo": 1856,
      "Bye": 1857,
      "round": 1858,
      "area": 1859,
      "riend": 1860,
      "local": 1861,
      "employees": 1862,
      "particular": 1863,
      "Pe": 1864,
      "bath": 1865,
      "gent": 1866,
      "pot": 1867,
      "song": 1868,
      "meat": 1869,
      "heav": 1870,
      "step": 1871,
      "word": 1872,
      "games": 1873,
      "soup": 1874,
      "language": 1875,
      "io": 1876,
      "tru": 1877,
      "schedule": 1878,
      "decision": 1879,
      "Shall": 1880,
      "With": 1881,
      "sli": 1882,
      "icy": 1883,
      "furn": 1884,
      "phy": 1885,
      "len": 1886,
      "ety": 1887,
      "blue": 1888,
      "contact": 1889,
      "mention": 1890,
      "success": 1891,
      "Jack": 1892,
      "Lon": 1893,
      "mple": 1894,
      "wall": 1895,
      "libr": 1896,
      "These": 1897,
      "intro": 1898,
      "students": 1899,
      "whether": 1900,
      "holiday": 1901,
      "London": 1902,
      "lots": 1903,
      "profess": 1904,
      "heart": 1905,
      "definitely": 1906,
      "percent": 1907,
      "shouldn": 1908,
      "wedding": 1909,
      "ral": 1910,
      "warm": 1911,
      "ressed": 1912,
      "exciting": 1913,
      "Ms": 1914,
      "ric": 1915,
      "cording": 1916,
      "discuss": 1917,
      "fru": 1918,
      "ford": 1919,
      "necess": 1920,
      "advice": 1921,
      "perfor": 1922,
      "library": 1923,
      "Bob": 1924,
      "gan": 1925,
      "secre": 1926,
      "vern": 1927,
      "ung": 1928,
      "quiet": 1929,
      "vate": 1930,
      "advert": 1931,
      "exchange": 1932,
      "plain": 1933,
      "longer": 1934,
      "running": 1935,
      "Mom": 1936,
      "breakfast": 1937,
      "camer": 1938,
      "madam": 1939,
      "comfor": 1940,
      "dire": 1941,
      "den": 1942,
      "spaper": 1943,
      "direct": 1944,
      "ctions": 1945,
      "example": 1946,
      "quickly": 1947,
      "football": 1948,
      "polic": 1949,
      "comm": 1950,
      "baby": 1951,
      "elect": 1952,
      "film": 1953,
      "dam": 1954,
      "develo": 1955,
      "plans": 1956,
      "writing": 1957,
      "classes": 1958,
      "rench": 1959,
      "careful": 1960,
      "hai": 1961,
      "plenty": 1962,
      "trad": 1963,
      "girls": 1964,
      "cription": 1965,
      "comfortable": 1966,
      "pes": 1967,
      "touch": 1968,
      "stick": 1969,
      "envir": 1970,
      "que": 1971,
      "newspaper": 1972,
      "brand": 1973,
      "apan": 1974,
      "Most": 1975,
      "depends": 1976,
      "ative": 1977,
      "search": 1978,
      "desk": 1979,
      "driving": 1980,
      "decide": 1981,
      "mming": 1982,
      "bedroom": 1983,
      "places": 1984,
      "serv": 1985,
      "regular": 1986,
      "studying": 1987,
      "environ": 1988,
      "action": 1989,
      "amaz": 1990,
      "payment": 1991,
      "green": 1992,
      "answer": 1993,
      "heavy": 1994,
      "Japan": 1995,
      "match": 1996,
      "works": 1997,
      "environment": 1998,
      "French": 1999,
      "Tai": 2000,
      "bal": 2001,
      "bur": 2002,
      "om": 2003,
      "web": 2004,
      "uture": 2005,
      "aff": 2006,
      "lfriend": 2007,
      "girlfriend": 2008,
      "19": 2009,
      "Ke": 2010,
      "Sund": 2011,
      "dre": 2012,
      "fly": 2013,
      "hang": 2014,
      "sand": 2015,
      "attention": 2016,
      "compan": 2017,
      "skin": 2018,
      "itional": 2019,
      "promise": 2020,
      "Sunday": 2021,
      "Ho": 2022,
      "gain": 2023,
      "lad": 2024,
      "govern": 2025,
      "Nothing": 2026,
      "promot": 2027,
      "gift": 2028,
      "People": 2029,
      "secret": 2030,
      "blo": 2031,
      "cat": 2032,
      "egg": 2033,
      "aged": 2034,
      "ched": 2035,
      "spital": 2036,
      "guest": 2037,
      "magaz": 2038,
      "future": 2039,
      "afford": 2040,
      "impro": 2041,
      "lugg": 2042,
      "Anyway": 2043,
      "current": 2044,
      "hurry": 2045,
      "satis": 2046,
      "ID": 2047,
      "tech": 2048,
      "asking": 2049,
      "difference": 2050,
      "performan": 2051,
      "Many": 2052,
      "knew": 2053,
      "cheap": 2054,
      "stock": 2055,
      "diet": 2056,
      "introdu": 2057,
      "cake": 2058,
      "glass": 2059,
      "grand": 2060,
      "healthy": 2061,
      "figure": 2062,
      "Hmm": 2063,
      "win": 2064,
      "acc": 2065,
      "wondering": 2066,
      "amazing": 2067,
      "luggage": 2068,
      "Tues": 2069,
      "nine": 2070,
      "iced": 2071,
      "tific": 2072,
      "dear": 2073,
      "compet": 2074,
      "space": 2075,
      "correct": 2076,
      "Comp": 2077,
      "learned": 2078,
      "18": 2079,
      "cked": 2080,
      "organ": 2081,
      "delic": 2082,
      "club": 2083,
      "blood": 2084,
      "rush": 2085,
      "picture": 2086,
      "police": 2087,
      "Two": 2088,
      "base": 2089,
      "oper": 2090,
      "erature": 2091,
      "Welcome": 2092,
      "Get": 2093,
      "tain": 2094,
      "prices": 2095,
      "counter": 2096,
      "guys": 2097,
      "employ": 2098,
      "ded": 2099,
      "lves": 2100,
      "mers": 2101,
      "roll": 2102,
      "mode": 2103,
      "notice": 2104,
      "carry": 2105,
      "learning": 2106,
      "arrange": 2107,
      "40": 2108,
      "flu": 2109,
      "mate": 2110,
      "oud": 2111,
      "ising": 2112,
      "cream": 2113,
      "costs": 2114,
      "medicine": 2115,
      "ised": 2116,
      "within": 2117,
      "hospital": 2118,
      "saying": 2119,
      "eating": 2120,
      "plane": 2121,
      "private": 2122,
      "excited": 2123,
      "swimming": 2124,
      "companies": 2125,
      "Dav": 2126,
      "pat": 2127,
      "selves": 2128,
      "ically": 2129,
      "cel": 2130,
      "words": 2131,
      "conne": 2132,
      "cards": 2133,
      "details": 2134,
      "application": 2135,
      "necessary": 2136,
      "daught": 2137,
      "ior": 2138,
      "mountain": 2139,
      "opin": 2140,
      "beach": 2141,
      "worried": 2142,
      "mum": 2143,
      "aster": 2144,
      "compl": 2145,
      "simple": 2146,
      "woman": 2147,
      "client": 2148,
      "vegetables": 2149,
      "neighbor": 2150,
      "Tuesday": 2151,
      "11": 2152,
      "Mar": 2153,
      "ctive": 2154,
      "vous": 2155,
      "outh": 2156,
      "beer": 2157,
      "lie": 2158,
      "spot": 2159,
      "Mrs": 2160,
      "Dad": 2161,
      "Jim": 2162,
      "eye": 2163,
      "ned": 2164,
      "oc": 2165,
      "sight": 2166,
      "site": 2167,
      "absolutely": 2168,
      "jobs": 2169,
      "government": 2170,
      "gas": 2171,
      "mill": 2172,
      "ride": 2173,
      "nervous": 2174,
      "drinks": 2175,
      "enjoyed": 2176,
      "gave": 2177,
      "ks": 2178,
      "mom": 2179,
      "somewhere": 2180,
      "provide": 2181,
      "Isn": 2182,
      "final": 2183,
      "higher": 2184,
      "contin": 2185,
      "sweet": 2186,
      "active": 2187,
      "subway": 2188,
      "suggestion": 2189,
      "ah": 2190,
      "staff": 2191,
      "anymore": 2192,
      "cars": 2193,
      "inside": 2194,
      "lier": 2195,
      "rol": 2196,
      "ney": 2197,
      "print": 2198,
      "message": 2199,
      "performance": 2200,
      "Give": 2201,
      "ug": 2202,
      "section": 2203,
      "copy": 2204,
      "mater": 2205,
      "meal": 2206,
      "resume": 2207,
      "received": 2208,
      "pounds": 2209,
      "incre": 2210,
      "season": 2211,
      "loan": 2212,
      "given": 2213,
      "buying": 2214,
      "latest": 2215,
      "documents": 2216,
      "mist": 2217,
      "dog": 2218,
      "corner": 2219,
      "develop": 2220,
      "500": 2221,
      "tur": 2222,
      "ower": 2223,
      "yours": 2224,
      "ability": 2225,
      "cannot": 2226,
      "shirt": 2227,
      "load": 2228,
      "Everything": 2229,
      "fruit": 2230,
      "daughter": 2231,
      "kill": 2232,
      "items": 2233,
      "mbers": 2234,
      "telling": 2235,
      "history": 2236,
      "anger": 2237,
      "cooking": 2238,
      "benef": 2239,
      "cert": 2240,
      "sci": 2241,
      "anim": 2242,
      "atulations": 2243,
      "mission": 2244,
      "package": 2245,
      "accident": 2246,
      "Gr": 2247,
      "Se": 2248,
      "gree": 2249,
      "ond": 2250,
      "eter": 2251,
      "shi": 2252,
      "spent": 2253,
      "skills": 2254,
      "choco": 2255,
      "fur": 2256,
      "non": 2257,
      "uce": 2258,
      "lent": 2259,
      "lect": 2260,
      "beef": 2261,
      "likes": 2262,
      "invest": 2263,
      "charg": 2264,
      "slow": 2265,
      "overtime": 2266,
      "taxi": 2267,
      "Che": 2268,
      "Wang": 2269,
      "dle": 2270,
      "dist": 2271,
      "fu": 2272,
      "hind": 2273,
      "vered": 2274,
      "state": 2275,
      "covered": 2276,
      "appro": 2277,
      "gym": 2278,
      "customers": 2279,
      "Mi": 2280,
      "Wor": 2281,
      "nic": 2282,
      "ense": 2283,
      "icle": 2284,
      "antastic": 2285,
      "indust": 2286,
      "cheaper": 2287,
      "regis": 2288,
      "delivery": 2289,
      "Internet": 2290,
      "policy": 2291,
      "improve": 2292,
      "fat": 2293,
      "lack": 2294,
      "issu": 2295,
      "stea": 2296,
      "proper": 2297,
      "ilities": 2298,
      "airport": 2299,
      "Didn": 2300,
      "famili": 2301,
      "University": 2302,
      "relation": 2303,
      "soft": 2304,
      "tall": 2305,
      "vid": 2306,
      "onna": 2307,
      "lately": 2308,
      "driver": 2309,
      "charac": 2310,
      "Bill": 2311,
      "cand": 2312,
      "liked": 2313,
      "parking": 2314,
      "David": 2315,
      "Lo": 2316,
      "Make": 2317,
      "war": 2318,
      "star": 2319,
      "ays": 2320,
      "willing": 2321,
      "Those": 2322,
      "concert": 2323,
      "quit": 2324,
      "finally": 2325,
      "Next": 2326,
      "leg": 2327,
      "behind": 2328,
      "urs": 2329,
      "salad": 2330,
      "period": 2331,
      "third": 2332,
      "hurt": 2333,
      "require": 2334,
      "completely": 2335,
      "Or": 2336,
      "Pro": 2337,
      "sme": 2338,
      "snow": 2339,
      "esti": 2340,
      "ional": 2341,
      "courses": 2342,
      "bon": 2343,
      "ible": 2344,
      "itor": 2345,
      "ache": 2346,
      "assist": 2347,
      "happens": 2348,
      "customer": 2349,
      "practice": 2350,
      "dream": 2351,
      "delicious": 2352,
      "Dan": 2353,
      "apo": 2354,
      "gage": 2355,
      "press": 2356,
      "menu": 2357,
      "withdraw": 2358,
      "trade": 2359,
      "brought": 2360,
      "grou": 2361,
      "cents": 2362,
      "giving": 2363,
      "dishes": 2364,
      "commun": 2365,
      "opinion": 2366,
      "16": 2367,
      "econ": 2368,
      "sometime": 2369,
      "writ": 2370,
      "effect": 2371,
      "changed": 2372,
      "--": 2373,
      "gonna": 2374,
      "stress": 2375,
      "logy": 2376,
      "explain": 2377,
      "dead": 2378,
      "anghai": 2379,
      "broke": 2380,
      "factory": 2381,
      "fifteen": 2382,
      "camera": 2383,
      "squ": 2384,
      "cap": 2385,
      "impress": 2386,
      "vision": 2387,
      "funny": 2388,
      "pressure": 2389,
      "God": 2390,
      "sil": 2391,
      "wise": 2392,
      "zen": 2393,
      "mes": 2394,
      "paying": 2395,
      "earlier": 2396,
      "fortun": 2397,
      "flowers": 2398,
      "Um": 2399,
      "dess": 2400,
      "sav": 2401,
      "throw": 2402,
      "ener": 2403,
      "worse": 2404,
      "unk": 2405,
      "against": 2406,
      "control": 2407,
      "opportunity": 2408,
      "booked": 2409,
      "dry": 2410,
      "natur": 2411,
      "checking": 2412,
      "dancing": 2413,
      "Taiwan": 2414,
      "Jo": 2415,
      "Ju": 2416,
      "ina": 2417,
      "ancy": 2418,
      "Thurs": 2419,
      "usual": 2420,
      "moved": 2421,
      "middle": 2422,
      "chocolate": 2423,
      "dessert": 2424,
      "dark": 2425,
      "remind": 2426,
      "iture": 2427,
      "aret": 2428,
      "coat": 2429,
      "twice": 2430,
      "international": 2431,
      "bottle": 2432,
      "management": 2433,
      "uro": 2434,
      "spicy": 2435,
      "borrow": 2436,
      "telephone": 2437,
      "education": 2438,
      "pull": 2439,
      "reli": 2440,
      "ors": 2441,
      "ica": 2442,
      "process": 2443,
      "checked": 2444,
      "camp": 2445,
      "truth": 2446,
      "complain": 2447,
      "further": 2448,
      "Fo": 2449,
      "cu": 2450,
      "lay": 2451,
      "estern": 2452,
      "kept": 2453,
      "alright": 2454,
      "turned": 2455,
      "fire": 2456,
      "pictures": 2457,
      "Yuan": 2458,
      "lts": 2459,
      "abroad": 2460,
      "degree": 2461,
      "tran": 2462,
      "story": 2463,
      "share": 2464,
      "women": 2465,
      "cribe": 2466,
      "Like": 2467,
      "responsible": 2468,
      "imum": 2469,
      "ni": 2470,
      "oil": 2471,
      "rout": 2472,
      "sco": 2473,
      "tom": 2474,
      "raise": 2475,
      "player": 2476,
      "lower": 2477,
      "Shanghai": 2478,
      "cult": 2479,
      "fight": 2480,
      "nis": 2481,
      "wel": 2482,
      "lies": 2483,
      "tiv": 2484,
      "terms": 2485,
      "illy": 2486,
      "support": 2487,
      "Only": 2488,
      "beginning": 2489,
      "milk": 2490,
      "juice": 2491,
      "services": 2492,
      "Company": 2493,
      "Mike": 2494,
      "Day": 2495,
      "His": 2496,
      "Hot": 2497,
      "chat": 2498,
      "gest": 2499,
      "tre": 2500,
      "lebr": 2501,
      "celebr": 2502,
      "tered": 2503,
      "poll": 2504,
      "speed": 2505,
      "Aust": 2506,
      "ile": 2507,
      "spo": 2508,
      "sold": 2509,
      "ference": 2510,
      "div": 2511,
      "lights": 2512,
      "dollar": 2513,
      "hands": 2514,
      "Steven": 2515,
      "furniture": 2516,
      "Sus": 2517,
      "scre": 2518,
      "tail": 2519,
      "tie": 2520,
      "till": 2521,
      "arden": 2522,
      "immedi": 2523,
      "broken": 2524,
      "increase": 2525,
      "Thursday": 2526,
      "Even": 2527,
      "bread": 2528,
      "flat": 2529,
      "lar": 2530,
      "pity": 2531,
      "moving": 2532,
      "hibit": 2533,
      "finan": 2534,
      "mistake": 2535,
      "Brown": 2536,
      "Lu": 2537,
      "Mic": 2538,
      "hung": 2539,
      "ience": 2540,
      "pic": 2541,
      "according": 2542,
      "ongr": 2543,
      "tennis": 2544,
      "allowed": 2545,
      "Since": 2546,
      "certain": 2547,
      "itch": 2548,
      "note": 2549,
      "except": 2550,
      "missed": 2551,
      "Should": 2552,
      "miles": 2553,
      "results": 2554,
      "fifty": 2555,
      "drop": 2556,
      "24": 2557,
      "Congr": 2558,
      "Po": 2559,
      "Par": 2560,
      "bow": 2561,
      "cal": 2562,
      "crow": 2563,
      "jam": 2564,
      "wood": 2565,
      "common": 2566,
      "staying": 2567,
      "appe": 2568,
      "Street": 2569,
      "promotion": 2570,
      "Last": 2571,
      "Park": 2572,
      "cig": 2573,
      "hood": 2574,
      "vious": 2575,
      "anywhere": 2576,
      "However": 2577,
      "standard": 2578,
      "easily": 2579,
      "walking": 2580,
      "expected": 2581,
      "Jane": 2582,
      "record": 2583,
      "Susan": 2584,
      "80": 2585,
      "Hong": 2586,
      "Man": 2587,
      "Never": 2588,
      "equ": 2589,
      "fare": 2590,
      "ki": 2591,
      "oub": 2592,
      "ideas": 2593,
      "due": 2594,
      "airs": 2595,
      "bags": 2596,
      "conditions": 2597,
      "Hu": 2598,
      "alone": 2599,
      "quar": 2600,
      "ists": 2601,
      "Goodbye": 2602,
      "starting": 2603,
      "invol": 2604,
      "temperature": 2605,
      "Mark": 2606,
      "fantastic": 2607,
      "looked": 2608,
      "uni": 2609,
      "imag": 2610,
      "smart": 2611,
      "Exactly": 2612,
      "subject": 2613,
      "responsib": 2614,
      "arrive": 2615,
      "Euro": 2616,
      "ris": 2617,
      "rice": 2618,
      "ught": 2619,
      "ann": 2620,
      "ency": 2621,
      "concer": 2622,
      "serve": 2623,
      "nights": 2624,
      "easier": 2625,
      "boring": 2626,
      "fortunately": 2627,
      "Austral": 2628,
      "White": 2629,
      "eed": 2630,
      "honey": 2631,
      "wast": 2632,
      "noticed": 2633,
      "ended": 2634,
      "tration": 2635,
      "shows": 2636,
      "colleag": 2637,
      "seats": 2638,
      "confirm": 2639,
      "including": 2640,
      "fund": 2641,
      "nes": 2642,
      "sn": 2643,
      "za": 2644,
      "stairs": 2645,
      "acket": 2646,
      "knowled": 2647,
      "stor": 2648,
      "keeping": 2649,
      "wards": 2650,
      "jump": 2651,
      "prepared": 2652,
      "smell": 2653,
      "13": 2654,
      "Gre": 2655,
      "rad": 2656,
      "memor": 2657,
      "sea": 2658,
      "seme": 2659,
      "fried": 2660,
      "graduate": 2661,
      "fault": 2662,
      "Congratulations": 2663,
      "60": 2664,
      "Bank": 2665,
      "adays": 2666,
      "term": 2667,
      "motor": 2668,
      "spring": 2669,
      "States": 2670,
      "shipment": 2671,
      "Everyone": 2672,
      "pieces": 2673,
      "Hotel": 2674,
      "Ma": 2675,
      "bother": 2676,
      "doub": 2677,
      "nut": 2678,
      "attr": 2679,
      "forty": 2680,
      "Ital": 2681,
      "nose": 2682,
      "collect": 2683,
      "smoke": 2684,
      "reasonable": 2685,
      "included": 2686,
      "norm": 2687,
      "eggs": 2688,
      "animals": 2689,
      "hungry": 2690,
      "semester": 2691,
      "jour": 2692,
      "oun": 2693,
      "inspe": 2694,
      "reme": 2695,
      "neck": 2696,
      "knows": 2697,
      "drinking": 2698,
      "fied": 2699,
      "born": 2700,
      "include": 2701,
      "boxes": 2702,
      "scen": 2703,
      "Cor": 2704,
      "Wed": 2705,
      "pm": 2706,
      "meters": 2707,
      "level": 2708,
      "hob": 2709,
      "deep": 2710,
      "tificate": 2711,
      "Jen": 2712,
      "Oly": 2713,
      "XX": 2714,
      "lab": 2715,
      "vin": 2716,
      "ying": 2717,
      "tomat": 2718,
      "Three": 2719,
      "offic": 2720,
      "calls": 2721,
      "guar": 2722,
      "settle": 2723,
      "instru": 2724,
      "advant": 2725,
      "website": 2726,
      "Green": 2727,
      "Olymp": 2728,
      "dut": 2729,
      "email": 2730,
      "activ": 2731,
      "ules": 2732,
      "spare": 2733,
      "bud": 2734,
      "spec": 2735,
      "caught": 2736,
      "career": 2737,
      "license": 2738,
      "Also": 2739,
      "chall": 2740,
      "traditional": 2741,
      "introduce": 2742,
      "industry": 2743,
      "45": 2744,
      "Ger": 2745,
      "known": 2746,
      "ples": 2747,
      "everybody": 2748,
      "natural": 2749,
      "Wednes": 2750,
      "Su": 2751,
      "garden": 2752,
      "tough": 2753,
      "uation": 2754,
      "ys": 2755,
      "nel": 2756,
      "felt": 2757,
      "ilt": 2758,
      "trust": 2759,
      "marri": 2760,
      "Remember": 2761,
      "marketing": 2762,
      "chase": 2763,
      "apolo": 2764,
      "cast": 2765,
      "lines": 2766,
      "power": 2767,
      "sw": 2768,
      "ances": 2769,
      "perhaps": 2770,
      "avo": 2771,
      "safe": 2772,
      "Today": 2773,
      "ski": 2774,
      "computers": 2775,
      "ized": 2776,
      "gives": 2777,
      "benefits": 2778,
      "financial": 2779,
      "cigaret": 2780,
      "kilo": 2781,
      "Wednesday": 2782,
      "Car": 2783,
      "Gu": 2784,
      "Ti": 2785,
      "cable": 2786,
      "hous": 2787,
      "ination": 2788,
      "ret": 2789,
      "reti": 2790,
      "tot": 2791,
      "orge": 2792,
      "meals": 2793,
      "dozen": 2794,
      "colors": 2795,
      "300": 2796,
      "Con": 2797,
      "From": 2798,
      "Say": 2799,
      "Uh": 2800,
      "ials": 2801,
      "ped": 2802,
      "rich": 2803,
      "research": 2804,
      "cock": 2805,
      "needed": 2806,
      "simp": 2807,
      "finding": 2808,
      "formal": 2809,
      "standing": 2810,
      "faster": 2811,
      "washing": 2812,
      "professional": 2813,
      "advertise": 2814,
      "transport": 2815,
      "Ha": 2816,
      "Lin": 2817,
      "Pa": 2818,
      "Peter": 2819,
      "Room": 2820,
      "Span": 2821,
      "Was": 2822,
      "bid": 2823,
      "mood": 2824,
      "anti": 2825,
      "seas": 2826,
      "owe": 2827,
      "habit": 2828,
      "lives": 2829,
      "irts": 2830,
      "hoping": 2831,
      "urgent": 2832,
      "exhibit": 2833,
      "propo": 2834,
      "built": 2835,
      "sweater": 2836,
      "Spanish": 2837,
      "danger": 2838,
      "fle": 2839,
      "mand": 2840,
      "wra": 2841,
      "ooth": 2842,
      "ified": 2843,
      "decl": 2844,
      "poor": 2845,
      "played": 2846,
      "homework": 2847,
      "visa": 2848,
      "deser": 2849,
      "agreement": 2850,
      "engine": 2851,
      "express": 2852,
      "campus": 2853,
      "creat": 2854,
      "ives": 2855,
      "ming": 2856,
      "option": 2857,
      "pool": 2858,
      "reach": 2859,
      "vent": 2860,
      "suits": 2861,
      "helpful": 2862,
      "invite": 2863,
      "baggage": 2864,
      "cleaning": 2865,
      "painting": 2866,
      "bottom": 2867,
      "relationship": 2868,
      "guarant": 2869,
      "Ad": 2870,
      "Bar": 2871,
      "Happ": 2872,
      "yo": 2873,
      "tight": 2874,
      "cheese": 2875,
      "prote": 2876,
      "tens": 2877,
      "foods": 2878,
      "earth": 2879,
      "basket": 2880,
      "video": 2881,
      "surprised": 2882,
      "Keep": 2883,
      "guests": 2884,
      "immediately": 2885,
      "Happy": 2886,
      "Ind": 2887,
      "Mmm": 2888,
      "ders": 2889,
      "tend": 2890,
      "wake": 2891,
      "lly": 2892,
      "stru": 2893,
      "moder": 2894,
      "fees": 2895,
      "friendly": 2896,
      "starts": 2897,
      "mploy": 2898,
      "push": 2899,
      "expecting": 2900,
      "prescription": 2901,
      "United": 2902,
      "passed": 2903,
      "Absolutely": 2904,
      "boyfriend": 2905,
      "familiar": 2906,
      "group": 2907,
      "doubt": 2908,
      "totally": 2909,
      "Mac": 2910,
      "rules": 2911,
      "ley": 2912,
      "whatever": 2913,
      "erson": 2914,
      "stores": 2915,
      "sitting": 2916,
      "bigger": 2917,
      "keeps": 2918,
      "pleasant": 2919,
      "deliver": 2920,
      "bonus": 2921,
      "Her": 2922,
      "wich": 2923,
      "weak": 2924,
      "cted": 2925,
      "hasn": 2926,
      "monthly": 2927,
      "cared": 2928,
      "schools": 2929,
      "mix": 2930,
      "experien": 2931,
      "huh": 2932,
      "leaves": 2933,
      "graph": 2934,
      "advance": 2935,
      "bathroom": 2936,
      "successful": 2937,
      "clients": 2938,
      "divor": 2939,
      "colleagues": 2940,
      "knowledge": 2941,
      "mployment": 2942,
      "Ser": 2943,
      "center": 2944,
      "dest": 2945,
      "dered": 2946,
      "appli": 2947,
      "pril": 2948,
      "nearly": 2949,
      "ailed": 2950,
      "gize": 2951,
      "secretary": 2952,
      "waste": 2953,
      "apologize": 2954,
      "PC": 2955,
      "Pre": 2956,
      "umb": 2957,
      "vell": 2958,
      "ooper": 2959,
      "among": 2960,
      "log": 2961,
      "parts": 2962,
      "laund": 2963,
      "invited": 2964,
      "huge": 2965,
      "programs": 2966,
      "cases": 2967,
      "fax": 2968,
      "steak": 2969,
      "bat": 2970,
      "thor": 2971,
      "ined": 2972,
      "aker": 2973,
      "himself": 2974,
      "mostly": 2975,
      "shape": 2976,
      "champ": 2977,
      "Account": 2978,
      "phys": 2979,
      "attractive": 2980,
      "Year": 2981,
      "bright": 2982,
      "dad": 2983,
      "zer": 2984,
      "ada": 2985,
      "loves": 2986,
      "appet": 2987,
      "impressed": 2988,
      "human": 2989,
      "climb": 2990,
      "bike": 2991,
      "purchase": 2992,
      "medium": 2993,
      "various": 2994,
      "magazine": 2995,
      "estival": 2996,
      "Pr": 2997,
      "Qu": 2998,
      "cab": 2999,
      "ali": 3000,
      "dogs": 3001,
      "col": 3002,
      "negot": 3003,
      "nowadays": 3004,
      "export": 3005,
      "upset": 3006,
      "useful": 3007,
      "tware": 3008,
      "rency": 3009,
      "paint": 3010,
      "suggestions": 3011,
      "negoti": 3012,
      "14": 3013,
      "Honey": 3014,
      "Madam": 3015,
      "eth": 3016,
      "saf": 3017,
      "atched": 3018,
      "cancel": 3019,
      "pper": 3020,
      "ently": 3021,
      "noise": 3022,
      "quet": 3023,
      "complic": 3024,
      "stories": 3025,
      "visiting": 3026,
      "reserve": 3027,
      "izza": 3028,
      "nearby": 3029,
      "arrived": 3030,
      "television": 3031,
      "Japanese": 3032,
      "issue": 3033,
      "marriage": 3034,
      "retire": 3035,
      "Paul": 3036,
      "laundry": 3037,
      "Ar": 3038,
      "April": 3039,
      "Try": 3040,
      "ix": 3041,
      "mouth": 3042,
      "page": 3043,
      "sugar": 3044,
      "fell": 3045,
      "feet": 3046,
      "delive": 3047,
      "promis": 3048,
      "older": 3049,
      "machines": 3050,
      "listening": 3051,
      "software": 3052,
      "general": 3053,
      "surprise": 3054,
      "communic": 3055,
      "screen": 3056,
      "Europe": 3057,
      "Australia": 3058,
      "delivered": 3059,
      "17": 3060,
      "55": 3061,
      "90": 3062,
      "bri": 3063,
      "fing": 3064,
      "mall": 3065,
      "button": 3066,
      "brown": 3067,
      "continue": 3068,
      "written": 3069,
      "23": 3070,
      "bly": 3071,
      "cir": 3072,
      "firm": 3073,
      "loud": 3074,
      "wal": 3075,
      "heat": 3076,
      "text": 3077,
      "urch": 3078,
      "plastic": 3079,
      "helping": 3080,
      "shower": 3081,
      "describe": 3082,
      "value": 3083,
      "electric": 3084,
      "specific": 3085,
      "ran": 3086,
      "sam": 3087,
      "beat": 3088,
      "rible": 3089,
      "agre": 3090,
      "decor": 3091,
      "headache": 3092,
      "strange": 3093,
      "Once": 3094,
      "model": 3095,
      "pollut": 3096,
      "Rob": 3097,
      "fice": 3098,
      "ror": 3099,
      "vot": 3100,
      "warr": 3101,
      "consu": 3102,
      "helps": 3103,
      "cla": 3104,
      "buses": 3105,
      "guide": 3106,
      "carpet": 3107,
      "biggest": 3108,
      "stayed": 3109,
      "mates": 3110,
      "understanding": 3111,
      "crit": 3112,
      "traveling": 3113,
      "sandwich": 3114,
      "science": 3115,
      "simply": 3116,
      "Kong": 3117,
      "Mor": 3118,
      "Nor": 3119,
      "Won": 3120,
      "ban": 3121,
      "cto": 3122,
      "cities": 3123,
      "omy": 3124,
      "rare": 3125,
      "rup": 3126,
      "scared": 3127,
      "ush": 3128,
      "anch": 3129,
      "itude": 3130,
      "bell": 3131,
      "ared": 3132,
      "fever": 3133,
      "workers": 3134,
      "spir": 3135,
      "sauce": 3136,
      "situation": 3137,
      "closed": 3138,
      "effic": 3139,
      "smaller": 3140,
      "suitable": 3141,
      "mitted": 3142,
      "bargain": 3143,
      "photos": 3144,
      "vari": 3145,
      "magazines": 3146,
      "million": 3147,
      "Har": 3148,
      "dig": 3149,
      "review": 3150,
      "held": 3151,
      "vey": 3152,
      "forms": 3153,
      "ads": 3154,
      "excuse": 3155,
      "ames": 3156,
      "track": 3157,
      "sheet": 3158,
      "Ann": 3159,
      "talked": 3160,
      "graduated": 3161,
      "wanna": 3162,
      "director": 3163,
      "Hope": 3164,
      "square": 3165,
      "Hold": 3166,
      "Rich": 3167,
      "cart": 3168,
      "ners": 3169,
      "rance": 3170,
      "tree": 3171,
      "ths": 3172,
      "stam": 3173,
      "limit": 3174,
      "across": 3175,
      "ourselves": 3176,
      "helped": 3177,
      "cale": 3178,
      "stomach": 3179,
      "feels": 3180,
      "angry": 3181,
      "Tomorrow": 3182,
      "lived": 3183,
      "production": 3184,
      "currency": 3185,
      "films": 3186,
      "located": 3187,
      "packing": 3188,
      "bile": 3189,
      "document": 3190,
      "damage": 3191,
      "crowded": 3192,
      "involved": 3193,
      "budget": 3194,
      "complicated": 3195,
      "Other": 3196,
      "cot": 3197,
      "cooper": 3198,
      "ome": 3199,
      "stri": 3200,
      "roses": 3201,
      "tooth": 3202,
      "aches": 3203,
      "harder": 3204,
      "ashing": 3205,
      "file": 3206,
      "solve": 3207,
      "wearing": 3208,
      "gency": 3209,
      "based": 3210,
      "materials": 3211,
      "activities": 3212,
      "modern": 3213,
      "Air": 3214,
      "Le": 3215,
      "Sep": 3216,
      "gers": 3217,
      "anci": 3218,
      "venu": 3219,
      "secur": 3220,
      "leep": 3221,
      "bear": 3222,
      "code": 3223,
      "shot": 3224,
      "everywhere": 3225,
      "numbers": 3226,
      "lap": 3227,
      "strict": 3228,
      "points": 3229,
      "changes": 3230,
      "opportunities": 3231,
      "Got": 3232,
      "Sar": 3233,
      "iel": 3234,
      "kick": 3235,
      "mic": 3236,
      "nger": 3237,
      "tes": 3238,
      "vi": 3239,
      "zz": 3240,
      "ony": 3241,
      "orig": 3242,
      "ham": 3243,
      "ached": 3244,
      "shar": 3245,
      "respect": 3246,
      "everyday": 3247,
      "minimum": 3248,
      "hardly": 3249,
      "More": 3250,
      "daily": 3251,
      "score": 3252,
      "imagine": 3253,
      "Italian": 3254,
      "warrant": 3255,
      "Octo": 3256,
      "ax": 3257,
      "dden": 3258,
      "emp": 3259,
      "tu": 3260,
      "relat": 3261,
      "sudden": 3262,
      "branch": 3263,
      "directly": 3264,
      "turning": 3265,
      "character": 3266,
      "duty": 3267,
      "October": 3268,
      "Black": 3269,
      "nal": 3270,
      "pian": 3271,
      "silly": 3272,
      "watched": 3273,
      "younger": 3274,
      "meas": 3275,
      "ison": 3276,
      "hill": 3277,
      "conference": 3278,
      "nobody": 3279,
      "commission": 3280,
      "marry": 3281,
      "opening": 3282,
      "possib": 3283,
      "swim": 3284,
      "voice": 3285,
      "equip": 3286,
      "German": 3287,
      "dangerous": 3288,
      "guarantee": 3289,
      "origin": 3290,
      "150": 3291,
      "Bet": 3292,
      "Fin": 3293,
      "gate": 3294,
      "requ": 3295,
      "orders": 3296,
      "ises": 3297,
      "Whatever": 3298,
      "tery": 3299,
      "upid": 3300,
      "hire": 3301,
      "Office": 3302,
      "extreme": 3303,
      "occas": 3304,
      "registered": 3305,
      "assistant": 3306,
      "Spe": 3307,
      "emer": 3308,
      "ire": 3309,
      "ieve": 3310,
      "itation": 3311,
      "social": 3312,
      "lim": 3313,
      "church": 3314,
      "rob": 3315,
      "mobile": 3316,
      "prov": 3317,
      "uncle": 3318,
      "simil": 3319,
      "background": 3320,
      "achieve": 3321,
      "selling": 3322,
      "fixed": 3323,
      "unemployment": 3324,
      "refund": 3325,
      "supermarket": 3326,
      "horrible": 3327,
      "avoid": 3328,
      "basketball": 3329,
      "similar": 3330,
      "Cur": 3331,
      "ging": 3332,
      "ron": 3333,
      "sour": 3334,
      "toast": 3335,
      "leather": 3336,
      "wide": 3337,
      "corpor": 3338,
      "pressed": 3339,
      "seriously": 3340,
      "files": 3341,
      "virus": 3342,
      "savings": 3343,
      "celebrate": 3344,
      "univer": 3345,
      "Pretty": 3346,
      "Listen": 3347,
      "cross": 3348,
      "pal": 3349,
      "range": 3350,
      "repair": 3351,
      "ordered": 3352,
      "stren": 3353,
      "arling": 3354,
      "Were": 3355,
      "amb": 3356,
      "ify": 3357,
      "plant": 3358,
      "plus": 3359,
      "muse": 3360,
      "overseas": 3361,
      "carefully": 3362,
      "studied": 3363,
      "cute": 3364,
      "valu": 3365,
      "Brit": 3366,
      "flying": 3367,
      "organiz": 3368,
      "radio": 3369,
      "inspection": 3370,
      "streng": 3371,
      "Cool": 3372,
      "bra": 3373,
      "cket": 3374,
      "ato": 3375,
      "soci": 3376,
      "acked": 3377,
      "gold": 3378,
      "typ": 3379,
      "epend": 3380,
      "brea": 3381,
      "hurts": 3382,
      "tastes": 3383,
      "languages": 3384,
      "challeng": 3385,
      "Cl": 3386,
      "Er": 3387,
      "cru": 3388,
      "gn": 3389,
      "shel": 3390,
      "renew": 3391,
      "erry": 3392,
      "encour": 3393,
      "exce": 3394,
      "ulous": 3395,
      "breath": 3396,
      "exams": 3397,
      "basic": 3398,
      "claim": 3399,
      "Dr": 3400,
      "South": 3401,
      "ais": 3402,
      "gri": 3403,
      "pizza": 3404,
      "ugh": 3405,
      "income": 3406,
      "annu": 3407,
      "ens": 3408,
      "wet": 3409,
      "idence": 3410,
      "comb": 3411,
      "agne": 3412,
      "ured": 3413,
      "gotten": 3414,
      "prepar": 3415,
      "math": 3416,
      "torna": 3417,
      "laugh": 3418,
      "highly": 3419,
      "register": 3420,
      "medical": 3421,
      "terribly": 3422,
      "certificate": 3423,
      "includes": 3424,
      "ential": 3425,
      "satisfied": 3426,
      "Probably": 3427,
      "Paris": 3428,
      "Jenny": 3429,
      "security": 3430,
      "Card": 3431,
      "City": 3432,
      "Lee": 3433,
      "mot": 3434,
      "rock": 3435,
      "article": 3436,
      "iling": 3437,
      "surely": 3438,
      "assign": 3439,
      "accounts": 3440,
      "expenses": 3441,
      "filled": 3442,
      "chair": 3443,
      "frequ": 3444,
      "elev": 3445,
      "parties": 3446,
      "difficul": 3447,
      "accepted": 3448,
      "awful": 3449,
      "entertain": 3450,
      "changing": 3451,
      "According": 3452,
      "welve": 3453,
      "concerned": 3454,
      "snack": 3455,
      "promised": 3456,
      "variety": 3457,
      "aud": 3458,
      "emb": 3459,
      "vote": 3460,
      "ware": 3461,
      "arrest": 3462,
      "hael": 3463,
      "abl": 3464,
      "tember": 3465,
      "downtown": 3466,
      "tors": 3467,
      "beauty": 3468,
      "Americans": 3469,
      "keys": 3470,
      "direction": 3471,
      "Grand": 3472,
      "larger": 3473,
      "September": 3474,
      "Am": 3475,
      "ston": 3476,
      "stupid": 3477,
      "lia": 3478,
      "coho": 3479,
      "demand": 3480,
      "ques": 3481,
      "polit": 3482,
      "redu": 3483,
      "acting": 3484,
      "Before": 3485,
      "choices": 3486,
      "cycle": 3487,
      "bills": 3488,
      "boarding": 3489,
      "employee": 3490,
      "wallet": 3491,
      "neighborhood": 3492,
      "charged": 3493,
      "registration": 3494,
      "candid": 3495,
      "elevator": 3496,
      "Hon": 3497,
      "besides": 3498,
      "tles": 3499,
      "western": 3500,
      "separ": 3501,
      "argu": 3502,
      "asleep": 3503,
      "lift": 3504,
      "somebody": 3505,
      "uses": 3506,
      "mbur": 3507,
      "grade": 3508,
      "bling": 3509,
      "positive": 3510,
      "accounting": 3511,
      "trains": 3512,
      "realize": 3513,
      "papers": 3514,
      "draft": 3515,
      "Deposit": 3516,
      "clearly": 3517,
      "Both": 3518,
      "legal": 3519,
      "Prof": 3520,
      "agreed": 3521,
      "request": 3522,
      "Fe": 3523,
      "Show": 3524,
      "pi": 3525,
      "sad": 3526,
      "twelve": 3527,
      "roast": 3528,
      "antic": 3529,
      "lob": 3530,
      "indi": 3531,
      "offers": 3532,
      "Canada": 3533,
      "letters": 3534,
      "travell": 3535,
      "England": 3536,
      "gging": 3537,
      "centre": 3538,
      "apple": 3539,
      "opened": 3540,
      "stuck": 3541,
      "aware": 3542,
      "France": 3543,
      "potato": 3544,
      "World": 3545,
      "trees": 3546,
      "120": 3547,
      "Chen": 3548,
      "Ge": 3549,
      "Put": 3550,
      "Person": 3551,
      "dressed": 3552,
      "scr": 3553,
      "refri": 3554,
      "isa": 3555,
      "becoming": 3556,
      "abo": 3557,
      "irty": 3558,
      "fered": 3559,
      "host": 3560,
      "exact": 3561,
      "extens": 3562,
      "establ": 3563,
      "resident": 3564,
      "themselves": 3565,
      "boat": 3566,
      "died": 3567,
      "tribut": 3568,
      "sky": 3569,
      "regard": 3570,
      "Someone": 3571,
      "ients": 3572,
      "profit": 3573,
      "Check": 3574,
      "distance": 3575,
      "Daniel": 3576,
      "responsibility": 3577,
      "refriger": 3578,
      "PM": 3579,
      "ale": 3580,
      "ury": 3581,
      "ory": 3582,
      "ordin": 3583,
      "alcoho": 3584,
      "access": 3585,
      "shy": 3586,
      "aging": 3587,
      "notes": 3588,
      "tood": 3589,
      "novel": 3590,
      "bucks": 3591,
      "manu": 3592,
      "map": 3593,
      "weren": 3594,
      "blow": 3595,
      "dial": 3596,
      "putting": 3597,
      "classical": 3598,
      "shops": 3599,
      "Excellent": 3600,
      "restaurants": 3601,
      "Unfortunately": 3602,
      "south": 3603,
      "related": 3604,
      "messages": 3605,
      "copies": 3606,
      "holidays": 3607,
      "characters": 3608,
      "econom": 3609,
      "economy": 3610,
      "normal": 3611,
      "transportation": 3612,
      "21": 3613,
      "26": 3614,
      "Has": 3615,
      "Ko": 3616,
      "fed": 3617,
      "gam": 3618,
      "rating": 3619,
      "sides": 3620,
      "lip": 3621,
      "chest": 3622,
      "god": 3623,
      "shut": 3624,
      "cture": 3625,
      "istic": 3626,
      "added": 3627,
      "reception": 3628,
      "qualified": 3629,
      "seller": 3630,
      "Monica": 3631,
      "relaxing": 3632,
      "figures": 3633,
      "mountains": 3634,
      "development": 3635,
      "ships": 3636,
      "impression": 3637,
      "picnic": 3638,
      "quarter": 3639,
      "champagne": 3640,
      "laptop": 3641,
      "refrigerator": 3642,
      "75": 3643,
      "Jones": 3644,
      "Sing": 3645,
      "Usu": 3646,
      "ium": 3647,
      "tar": 3648,
      "van": 3649,
      "orange": 3650,
      "isy": 3651,
      "bec": 3652,
      "icles": 3653,
      "achel": 3654,
      "ama": 3655,
      "seemed": 3656,
      "indeed": 3657,
      "ents": 3658,
      "Doctor": 3659,
      "mul": 3660,
      "pleased": 3661,
      "Aren": 3662,
      "stopped": 3663,
      "mercial": 3664,
      "missing": 3665,
      "umn": 3666,
      "produce": 3667,
      "meetings": 3668,
      "traveler": 3669,
      "teams": 3670,
      "dressing": 3671,
      "basis": 3672,
      "applying": 3673,
      "relaxed": 3674,
      "graphy": 3675,
      "balance": 3676,
      "material": 3677,
      "impressive": 3678,
      "silk": 3679,
      "Michael": 3680,
      "aisle": 3681,
      "annual": 3682,
      "Bu": 3683,
      "Ben": 3684,
      "Bus": 3685,
      "King": 3686,
      "Rose": 3687,
      "cine": 3688,
      "mass": 3689,
      "ering": 3690,
      "loss": 3691,
      "exper": 3692,
      "perfu": 3693,
      "events": 3694,
      "fries": 3695,
      "sites": 3696,
      "additional": 3697,
      "perfectly": 3698,
      "climate": 3699,
      "ossible": 3700,
      "songs": 3701,
      "block": 3702,
      "culture": 3703,
      "ancient": 3704,
      "manufact": 3705,
      "CD": 3706,
      "Washing": 3707,
      "cul": 3708,
      "cakes": 3709,
      "har": 3710,
      "taught": 3711,
      "vill": 3712,
      "thin": 3713,
      "atures": 3714,
      "members": 3715,
      "veh": 3716,
      "stat": 3717,
      "aylor": 3718,
      "verage": 3719,
      "suf": 3720,
      "shirts": 3721,
      "pose": 3722,
      "prin": 3723,
      "spect": 3724,
      "lets": 3725,
      "stops": 3726,
      "Alice": 3727,
      "styles": 3728,
      "volu": 3729,
      "gifts": 3730,
      "records": 3731,
      "furnished": 3732,
      "charges": 3733,
      "relig": 3734,
      "appear": 3735,
      "settled": 3736,
      "advantage": 3737,
      "digital": 3738,
      "venue": 3739,
      "occasion": 3740,
      "Usually": 3741,
      "Each": 3742,
      "Tra": 3743,
      "Taylor": 3744,
      "Wall": 3745,
      "Western": 3746,
      "bies": 3747,
      "cry": 3748,
      "darling": 3749,
      "lake": 3750,
      "rot": 3751,
      "zing": 3752,
      "thro": 3753,
      "inch": 3754,
      "ism": 3755,
      "select": 3756,
      "chi": 3757,
      "peace": 3758,
      "degre": 3759,
      "proud": 3760,
      "types": 3761,
      "mony": 3762,
      "cloth": 3763,
      "players": 3764,
      "smooth": 3765,
      "weekends": 3766,
      "presentation": 3767,
      "Perfect": 3768,
      "fishing": 3769,
      "install": 3770,
      "entific": 3771,
      "advertising": 3772,
      "lady": 3773,
      "Second": 3774,
      "journey": 3775,
      "degrees": 3776,
      "Mex": 3777,
      "cin": 3778,
      "een": 3779,
      "failed": 3780,
      "gress": 3781,
      "hou": 3782,
      "jacket": 3783,
      "master": 3784,
      "scar": 3785,
      "tit": 3786,
      "ums": 3787,
      "esome": 3788,
      "etc": 3789,
      "losing": 3790,
      "independ": 3791,
      "entrance": 3792,
      "previous": 3793,
      "specially": 3794,
      "minis": 3795,
      "served": 3796,
      "checks": 3797,
      "disappoint": 3798,
      "rule": 3799,
      "Stud": 3800,
      "reserved": 3801,
      "senior": 3802,
      "attitude": 3803,
      "cigarettes": 3804,
      "wrap": 3805,
      "Quite": 3806,
      "safety": 3807,
      "Richard": 3808,
      "George": 3809,
      "ordinary": 3810,
      "Mexic": 3811,
      "70": 3812,
      "Asi": 3813,
      "June": 3814,
      "SA": 3815,
      "Yep": 3816,
      "ears": 3817,
      "iv": 3818,
      "nur": 3819,
      "zes": 3820,
      "inves": 3821,
      "incred": 3822,
      "replace": 3823,
      "lla": 3824,
      "lid": 3825,
      "ours": 3826,
      "Tho": 3827,
      "cous": 3828,
      "unders": 3829,
      "max": 3830,
      "earn": 3831,
      "survey": 3832,
      "skirt": 3833,
      "singing": 3834,
      "inviting": 3835,
      "talent": 3836,
      "subs": 3837,
      "crack": 3838,
      "Frank": 3839,
      "mistakes": 3840,
      "requirements": 3841,
      "itors": 3842,
      "Joe": 3843,
      "exhibition": 3844,
      "appetiz": 3845,
      "Morning": 3846,
      "warranty": 3847,
      "Profess": 3848,
      "BA": 3849,
      "die": 3850,
      "fool": 3851,
      "lin": 3852,
      "nast": 3853,
      "tan": 3854,
      "west": 3855,
      "formed": 3856,
      "alo": 3857,
      "chose": 3858,
      "areas": 3859,
      "goal": 3860,
      "moon": 3861,
      "agon": 3862,
      "agency": 3863,
      "ural": 3864,
      "convers": 3865,
      "contribut": 3866,
      "noisy": 3867,
      "ends": 3868,
      "cky": 3869,
      "trick": 3870,
      "dump": 3871,
      "plays": 3872,
      "enjoying": 3873,
      "Department": 3874,
      "straw": 3875,
      "convenience": 3876,
      "slip": 3877,
      "glasses": 3878,
      "connection": 3879,
      "slowly": 3880,
      "effects": 3881,
      "Corpor": 3882,
      "labor": 3883,
      "houses": 3884,
      "PCC": 3885,
      "retirement": 3886,
      "individ": 3887,
      "78": 3888,
      "Aug": 3889,
      "Five": 3890,
      "Walk": 3891,
      "Zhang": 3892,
      "dat": 3893,
      "fail": 3894,
      "spl": 3895,
      "tone": 3896,
      "init": 3897,
      "anno": 3898,
      "legs": 3899,
      "iction": 3900,
      "wire": 3901,
      "chess": 3902,
      "shine": 3903,
      "quant": 3904,
      "compli": 3905,
      "avour": 3906,
      "meaning": 3907,
      "impossible": 3908,
      "showing": 3909,
      "automat": 3910,
      "spending": 3911,
      "passen": 3912,
      "tests": 3913,
      "personality": 3914,
      "leader": 3915,
      "energy": 3916,
      "Lucy": 3917,
      "Time": 3918,
      "pollution": 3919,
      "typical": 3920,
      "shelf": 3921,
      "tornado": 3922,
      "Washington": 3923,
      "AT": 3924,
      "Stop": 3925,
      "Wind": 3926,
      "average": 3927,
      "brow": 3928,
      "burn": 3929,
      "bunch": 3930,
      "caf": 3931,
      "gal": 3932,
      "jun": 3933,
      "lace": 3934,
      "pound": 3935,
      "pork": 3936,
      "vy": 3937,
      "ingred": 3938,
      "river": 3939,
      "butter": 3940,
      "inda": 3941,
      "indy": 3942,
      "delay": 3943,
      "proof": 3944,
      "unit": 3945,
      "units": 3946,
      "reduce": 3947,
      "offices": 3948,
      "accountant": 3949,
      "rains": 3950,
      "raining": 3951,
      "emergency": 3952,
      "cinema": 3953,
      "88": 3954,
      "Cer": 3955,
      "VI": 3956,
      "wa": 3957,
      "remain": 3958,
      "erk": 3959,
      "hello": 3960,
      "aries": 3961,
      "sole": 3962,
      "lif": 3963,
      "Things": 3964,
      "depart": 3965,
      "yellow": 3966,
      "joking": 3967,
      "focus": 3968,
      "loved": 3969,
      "lazy": 3970,
      "cord": 3971,
      "singer": 3972,
      "jeans": 3973,
      "Road": 3974,
      "falling": 3975,
      "flavor": 3976,
      "True": 3977,
      "memory": 3978,
      "declare": 3979,
      "suddenly": 3980,
      "Professor": 3981,
      "Ano": 3982,
      "Cindy": 3983,
      "Sam": 3984,
      "Sup": 3985,
      "Turn": 3986,
      "ado": 3987,
      "fits": 3988,
      "glo": 3989,
      "nia": 3990,
      "roy": 3991,
      "ably": 3992,
      "worst": 3993,
      "washed": 3994,
      "plat": 3995,
      "plate": 3996,
      "affect": 3997,
      "spell": 3998,
      "stolen": 3999,
      "apples": 4000,
      "grown": 4001,
      "series": 4002,
      "drunk": 4003,
      "description": 4004,
      "author": 4005,
      "Looks": 4006,
      "seconds": 4007,
      "boys": 4008,
      "porter": 4009,
      "International": 4010,
      "north": 4011,
      "patient": 4012,
      "storm": 4013,
      "cocktail": 4014,
      "options": 4015,
      "rupt": 4016,
      "equipment": 4017,
      "extremely": 4018,
      "throat": 4019,
      "disappointed": 4020,
      "ingredients": 4021,
      "Another": 4022,
      "22": 4023,
      "36": 4024,
      "AM": 4025,
      "Dis": 4026,
      "Spr": 4027,
      "bie": 4028,
      "favour": 4029,
      "kno": 4030,
      "zoo": 4031,
      "eral": 4032,
      "belie": 4033,
      "coll": 4034,
      "suite": 4035,
      "thern": 4036,
      "rail": 4037,
      "chemist": 4038,
      "supplies": 4039,
      "surv": 4040,
      "skill": 4041,
      "dining": 4042,
      "strate": 4043,
      "iversary": 4044,
      "terrific": 4045,
      "sleeping": 4046,
      "casual": 4047,
      "techno": 4048,
      "spots": 4049,
      "Working": 4050,
      "property": 4051,
      "warning": 4052,
      "announ": 4053,
      "hobby": 4054,
      "hobbies": 4055,
      "efficient": 4056,
      "piano": 4057,
      "measure": 4058,
      "above": 4059,
      "August": 4060,
      "Super": 4061,
      "Cali": 4062,
      "Jason": 4063,
      "Sal": 4064,
      "mad": 4065,
      "pple": 4066,
      "rise": 4067,
      "tag": 4068,
      "uri": 4069,
      "zhou": 4070,
      "itut": 4071,
      "aller": 4072,
      "wild": 4073,
      "golf": 4074,
      "thinks": 4075,
      "unless": 4076,
      "agement": 4077,
      "ideal": 4078,
      "blame": 4079,
      "venir": 4080,
      "badly": 4081,
      "showed": 4082,
      "addition": 4083,
      "brings": 4084,
      "pump": 4085,
      "Liu": 4086,
      "olar": 4087,
      "bottles": 4088,
      "forgotten": 4089,
      "cameras": 4090,
      "damaged": 4091,
      "competition": 4092,
      "Olympic": 4093,
      "protect": 4094,
      "divorce": 4095,
      "brief": 4096,
      "original": 4097,
      "Califor": 4098,
      "AB": 4099,
      "Four": 4100,
      "Fair": 4101,
      "Mc": 4102,
      "Res": 4103,
      "Squ": 4104,
      "Six": 4105,
      "bun": 4106,
      "gun": 4107,
      "ker": 4108,
      "vard": 4109,
      "anc": 4110,
      "anal": 4111,
      "theat": 4112,
      "meth": 4113,
      "seaf": 4114,
      "soda": 4115,
      "charm": 4116,
      "Helen": 4117,
      "commercial": 4118,
      "cies": 4119,
      "brush": 4120,
      "sities": 4121,
      "Haven": 4122,
      "rude": 4123,
      "invitation": 4124,
      "broad": 4125,
      "interviewer": 4126,
      "qualific": 4127,
      "frank": 4128,
      "suitcase": 4129,
      "dealing": 4130,
      "presents": 4131,
      "reasons": 4132,
      "transaction": 4133,
      "explo": 4134,
      "entire": 4135,
      "supervis": 4136,
      "investment": 4137,
      "Olympics": 4138,
      "physical": 4139,
      "Harvard": 4140,
      "stamps": 4141,
      "universities": 4142,
      "museum": 4143,
      "perfume": 4144,
      "vehicle": 4145,
      "Thomas": 4146,
      "nasty": 4147,
      "seafood": 4148,
      "El": 4149,
      "Glad": 4150,
      "Master": 4151,
      "While": 4152,
      "ga": 4153,
      "mir": 4154,
      "sis": 4155,
      "repe": 4156,
      "force": 4157,
      "tip": 4158,
      "ird": 4159,
      "iron": 4160,
      "amp": 4161,
      "agent": 4162,
      "agers": 4163,
      "lock": 4164,
      "fol": 4165,
      "typing": 4166,
      "names": 4167,
      "sixty": 4168,
      "souvenir": 4169,
      "confident": 4170,
      "Definitely": 4171,
      "lands": 4172,
      "purpose": 4173,
      "practical": 4174,
      "fairly": 4175,
      "scheduled": 4176,
      "flower": 4177,
      "Boston": 4178,
      "lence": 4179,
      "catalo": 4180,
      "techn": 4181,
      "sightseeing": 4182,
      "bowl": 4183,
      "risk": 4184,
      "anniversary": 4185,
      "flex": 4186,
      "deserve": 4187,
      "Robert": 4188,
      "empty": 4189,
      "Speaking": 4190,
      "incredible": 4191,
      "250": 4192,
      "34": 4193,
      "35": 4194,
      "East": 4195,
      "Linda": 4196,
      "Over": 4197,
      "Sally": 4198,
      "Sich": 4199,
      "Ter": 4200,
      "Too": 4201,
      "alent": 4202,
      "dor": 4203,
      "dating": 4204,
      "gro": 4205,
      "iled": 4206,
      "jud": 4207,
      "junk": 4208,
      "wing": 4209,
      "theater": 4210,
      "seve": 4211,
      "seed": 4212,
      "stret": 4213,
      "hail": 4214,
      "below": 4215,
      "altogether": 4216,
      "nels": 4217,
      "nte": 4218,
      "sured": 4219,
      "urb": 4220,
      "worker": 4221,
      "brid": 4222,
      "chances": 4223,
      "intend": 4224,
      "display": 4225,
      "rences": 4226,
      "sets": 4227,
      "addy": 4228,
      "fourth": 4229,
      "eleven": 4230,
      "iao": 4231,
      "symp": 4232,
      "hundreds": 4233,
      "Chris": 4234,
      "walls": 4235,
      "Julia": 4236,
      "route": 4237,
      "spoken": 4238,
      "Poor": 4239,
      "advertisement": 4240,
      "umbre": 4241,
      "Sarah": 4242,
      "split": 4243,
      "quantity": 4244,
      "survive": 4245,
      "California": 4246,
      "Sichuan": 4247,
      "bes": 4248,
      "oven": 4249,
      "punch": 4250,
      "inse": 4251,
      "reput": 4252,
      "meter": 4253,
      "meant": 4254,
      "arian": 4255,
      "anytime": 4256,
      "oods": 4257,
      "shoo": 4258,
      "loans": 4259,
      "depressed": 4260,
      "proced": 4261,
      "arts": 4262,
      "cheer": 4263,
      "grab": 4264,
      "minor": 4265,
      "literature": 4266,
      "pale": 4267,
      "Colle": 4268,
      "shame": 4269,
      "fired": 4270,
      "cleaned": 4271,
      "Johnson": 4272,
      "maintain": 4273,
      "tourist": 4274,
      "honor": 4275,
      "basically": 4276,
      "insist": 4277,
      "transferred": 4278,
      "cats": 4279,
      "connect": 4280,
      "proposal": 4281,
      "weakness": 4282,
      "experienced": 4283,
      "achelor": 4284,
      "Business": 4285,
      "chips": 4286,
      "Gener": 4287,
      "Med": 4288,
      "Wil": 4289,
      "dent": 4290,
      "fan": 4291,
      "phi": 4292,
      "pil": 4293,
      "pred": 4294,
      "scale": 4295,
      "tv": 4296,
      "uh": 4297,
      "vio": 4298,
      "toi": 4299,
      "stic": 4300,
      "stage": 4301,
      "bean": 4302,
      "roof": 4303,
      "acy": 4304,
      "mod": 4305,
      "articles": 4306,
      "resour": 4307,
      "clerk": 4308,
      "hadn": 4309,
      "court": 4310,
      "Believe": 4311,
      "handsome": 4312,
      "supply": 4313,
      "Something": 4314,
      "bedrooms": 4315,
      "president": 4316,
      "solution": 4317,
      "completed": 4318,
      "sunny": 4319,
      "particip": 4320,
      "following": 4321,
      "fashionable": 4322,
      "generally": 4323,
      "neighbors": 4324,
      "families": 4325,
      "Love": 4326,
      "responsibilities": 4327,
      "motorcycle": 4328,
      "XXXX": 4329,
      "switch": 4330,
      "walked": 4331,
      "critic": 4332,
      "cooperation": 4333,
      "Kore": 4334,
      "29": 4335,
      "800": 4336,
      "Afr": 4337,
      "Festival": 4338,
      "Lily": 4339,
      "ao": 4340,
      "bite": 4341,
      "bicy": 4342,
      "cooked": 4343,
      "dates": 4344,
      "fry": 4345,
      "fond": 4346,
      "fancy": 4347,
      "packed": 4348,
      "remony": 4349,
      "onto": 4350,
      "sele": 4351,
      "became": 4352,
      "ald": 4353,
      "utch": 4354,
      "tial": 4355,
      "admit": 4356,
      "goals": 4357,
      "urry": 4358,
      "goodbye": 4359,
      "otherwise": 4360,
      "ishing": 4361,
      "scholar": 4362,
      "trim": 4363,
      "effort": 4364,
      "invo": 4365,
      "signs": 4366,
      "runs": 4367,
      "Almost": 4368,
      "teachers": 4369,
      "frust": 4370,
      "sweat": 4371,
      "graduation": 4372,
      "garage": 4373,
      "neighb": 4374,
      "particularly": 4375,
      "electron": 4376,
      "occup": 4377,
      "Fore": 4378,
      "routine": 4379,
      "calm": 4380,
      "necklace": 4381,
      "scenery": 4382,
      "tomato": 4383,
      "Current": 4384,
      "challenging": 4385,
      "candidate": 4386,
      "potatoes": 4387,
      "extension": 4388,
      "alcohol": 4389,
      "maximum": 4390,
      "conversation": 4391,
      "repeat": 4392,
      "Avenue": 4393,
      "Bas": 4394,
      "Bring": 4395,
      "Cent": 4396,
      "James": 4397,
      "Mum": 4398,
      "Ri": 4399,
      "Ted": 4400,
      "Want": 4401,
      "ech": 4402,
      "fra": 4403,
      "ler": 4404,
      "lun": 4405,
      "loose": 4406,
      "pants": 4407,
      "shad": 4408,
      "inc": 4409,
      "rep": 4410,
      "atives": 4411,
      "stations": 4412,
      "lex": 4413,
      "sore": 4414,
      "ids": 4415,
      "iring": 4416,
      "Web": 4417,
      "nder": 4418,
      "features": 4419,
      "conside": 4420,
      "quot": 4421,
      "compens": 4422,
      "cough": 4423,
      "bored": 4424,
      "partner": 4425,
      "cafe": 4426,
      "channels": 4427,
      "interests": 4428,
      "studies": 4429,
      "shoe": 4430,
      "visited": 4431,
      "offering": 4432,
      "ridge": 4433,
      "evenings": 4434,
      "location": 4435,
      "enterpr": 4436,
      "conditioning": 4437,
      "Roman": 4438,
      "lawy": 4439,
      "mentioned": 4440,
      "warming": 4441,
      "regularly": 4442,
      "blocks": 4443,
      "satisfac": 4444,
      "employer": 4445,
      "benefit": 4446,
      "cultural": 4447,
      "advantages": 4448,
      "cabin": 4449,
      "Wonder": 4450,
      "exception": 4451,
      "travelling": 4452,
      "expert": 4453,
      "princi": 4454,
      "individual": 4455,
      "global": 4456,
      "Square": 4457,
      "reputation": 4458,
      "considered": 4459,
      "Sand": 4460,
      "dust": 4461,
      "festival": 4462,
      "gin": 4463,
      "nature": 4464,
      "rates": 4465,
      "heel": 4466,
      "stone": 4467,
      "ceed": 4468,
      "cember": 4469,
      "fective": 4470,
      "tee": 4471,
      "def": 4472,
      "rights": 4473,
      "plants": 4474,
      "concl": 4475,
      "pocket": 4476,
      "compar": 4477,
      "owners": 4478,
      "irsty": 4479,
      "Char": 4480,
      "Surely": 4481,
      "dull": 4482,
      "download": 4483,
      "handed": 4484,
      "planet": 4485,
      "stere": 4486,
      "steal": 4487,
      "arrang": 4488,
      "holding": 4489,
      "December": 4490,
      "doors": 4491,
      "portion": 4492,
      "laws": 4493,
      "required": 4494,
      "burger": 4495,
      "statement": 4496,
      "properly": 4497,
      "vidence": 4498,
      "housing": 4499,
      "habits": 4500,
      "paintings": 4501,
      "Otherwise": 4502,
      "sharp": 4503,
      "strawber": 4504,
      "ATM": 4505,
      "satisfaction": 4506,
      "400": 4507,
      "56": 4508,
      "Hen": 4509,
      "House": 4510,
      "Hurry": 4511,
      "Mm": 4512,
      "President": 4513,
      "Sch": 4514,
      "bage": 4515,
      "pills": 4516,
      "uary": 4517,
      "vable": 4518,
      "ories": 4519,
      "sex": 4520,
      "lend": 4521,
      "keen": 4522,
      "icing": 4523,
      "icago": 4524,
      "eding": 4525,
      "ading": 4526,
      "ppers": 4527,
      "prob": 4528,
      "romance": 4529,
      "item": 4530,
      "Chicago": 4531,
      "histor": 4532,
      "paign": 4533,
      "Forget": 4534,
      "lessons": 4535,
      "network": 4536,
      "topic": 4537,
      "campaign": 4538,
      "haircut": 4539,
      "returns": 4540,
      "considering": 4541,
      "oppos": 4542,
      "expand": 4543,
      "community": 4544,
      "---": 4545,
      "silver": 4546,
      "July": 4547,
      "cigarette": 4548,
      "advertisements": 4549,
      "appliances": 4550,
      "sample": 4551,
      "voted": 4552,
      "relatives": 4553,
      "title": 4554,
      "umbrella": 4555,
      "toilet": 4556,
      "selection": 4557,
      "Henry": 4558,
      "opposite": 4559,
      "27": 4560,
      "Bir": 4561,
      "Men": 4562,
      "Rus": 4563,
      "Ten": 4564,
      "West": 4565,
      "Zina": 4566,
      "eper": 4567,
      "ges": 4568,
      "harm": 4569,
      "ods": 4570,
      "pig": 4571,
      "ram": 4572,
      "sl": 4573,
      "slight": 4574,
      "rely": 4575,
      "height": 4576,
      "stir": 4577,
      "arms": 4578,
      "hambur": 4579,
      "belt": 4580,
      "offered": 4581,
      "forgive": 4582,
      "ases": 4583,
      "rocks": 4584,
      "roaches": 4585,
      "cancell": 4586,
      "oodles": 4587,
      "progress": 4588,
      "unusual": 4589,
      "unfortunately": 4590,
      "romantic": 4591,
      "coupon": 4592,
      "bride": 4593,
      "Chan": 4594,
      "wrote": 4595,
      "personally": 4596,
      "sending": 4597,
      "Whoa": 4598,
      "tape": 4599,
      "obvious": 4600,
      "reservations": 4601,
      "confused": 4602,
      "dete": 4603,
      "reports": 4604,
      "consideration": 4605,
      "killed": 4606,
      "battery": 4607,
      "embarr": 4608,
      "pipe": 4609,
      "manufacture": 4610,
      "village": 4611,
      "technical": 4612,
      "Russi": 4613,
      "28": 4614,
      "65": 4615,
      "Baker": 4616,
      "Call": 4617,
      "Pet": 4618,
      "Sue": 4619,
      "cil": 4620,
      "dare": 4621,
      "dies": 4622,
      "dated": 4623,
      "flies": 4624,
      "ww": 4625,
      "informed": 4626,
      "rew": 4627,
      "reco": 4628,
      "sec": 4629,
      "bey": 4630,
      "liers": 4631,
      "coke": 4632,
      "ripe": 4633,
      "rimp": 4634,
      "adjust": 4635,
      "likely": 4636,
      "moist": 4637,
      "anta": 4638,
      "teeth": 4639,
      "mpoo": 4640,
      "raz": 4641,
      "union": 4642,
      "affair": 4643,
      "spr": 4644,
      "friendship": 4645,
      "disco": 4646,
      "laid": 4647,
      "rug": 4648,
      "happening": 4649,
      "shampoo": 4650,
      "aunt": 4651,
      "speaks": 4652,
      "Everybody": 4653,
      "azz": 4654,
      "crime": 4655,
      "vacu": 4656,
      "confidence": 4657,
      "fitting": 4658,
      "Anna": 4659,
      "grades": 4660,
      "bio": 4661,
      "tradition": 4662,
      "newspapers": 4663,
      "grandmother": 4664,
      "organic": 4665,
      "millions": 4666,
      "shipping": 4667,
      "Barbie": 4668,
      "provides": 4669,
      "laughing": 4670,
      "lipstick": 4671,
      "volunte": 4672,
      "cousin": 4673,
      "appetizer": 4674,
      "data": 4675,
      "Spring": 4676,
      "ABC": 4677,
      "stretch": 4678,
      "lawyer": 4679,
      "2nd": 4680,
      "Eight": 4681,
      "Ken": 4682,
      "Tim": 4683,
      "boo": 4684,
      "bars": 4685,
      "cate": 4686,
      "fab": 4687,
      "vit": 4688,
      "iny": 4689,
      "represent": 4690,
      "lemon": 4691,
      "shor": 4692,
      "decent": 4693,
      "hiking": 4694,
      "congr": 4695,
      "event": 4696,
      "roommate": 4697,
      "greatest": 4698,
      "forever": 4699,
      "feelings": 4700,
      "caused": 4701,
      "marks": 4702,
      "Express": 4703,
      "effective": 4704,
      "clever": 4705,
      "membership": 4706,
      "signed": 4707,
      "auto": 4708,
      "icted": 4709,
      "paperwork": 4710,
      "fitness": 4711,
      "result": 4712,
      "gentle": 4713,
      "operation": 4714,
      "groups": 4715,
      "deadline": 4716,
      "picked": 4717,
      "orgeous": 4718,
      "mixed": 4719,
      "Service": 4720,
      "applied": 4721,
      "zero": 4722,
      "Finally": 4723,
      "charming": 4724,
      "qualifications": 4725,
      "Wonderful": 4726,
      "Amy": 4727,
      "Cla": 4728,
      "Em": 4729,
      "IT": 4730,
      "Lisa": 4731,
      "National": 4732,
      "Sy": 4733,
      "apart": 4734,
      "evidence": 4735,
      "iency": 4736,
      "mort": 4737,
      "nin": 4738,
      "nation": 4739,
      "yard": 4740,
      "thri": 4741,
      "anced": 4742,
      "attract": 4743,
      "mechan": 4744,
      "stars": 4745,
      "ena": 4746,
      "beans": 4747,
      "asy": 4748,
      "liqu": 4749,
      "coast": 4750,
      "gos": 4751,
      "Their": 4752,
      "shif": 4753,
      "agend": 4754,
      "iff": 4755,
      "const": 4756,
      "amed": 4757,
      "Andy": 4758,
      "aven": 4759,
      "mangoes": 4760,
      "speech": 4761,
      "brick": 4762,
      "grass": 4763,
      "closer": 4764,
      "Enjoy": 4765,
      "waiter": 4766,
      "autumn": 4767,
      "collection": 4768,
      "teaching": 4769,
      "breaks": 4770,
      "banks": 4771,
      "attack": 4772,
      "attach": 4773,
      "hotels": 4774,
      "locked": 4775,
      "acceptable": 4776,
      "Ange": 4777,
      "15th": 4778,
      "whenever": 4779,
      "Rome": 4780,
      "requires": 4781,
      "Trust": 4782,
      "designed": 4783,
      "Franc": 4784,
      "horror": 4785,
      "growth": 4786,
      "professor": 4787,
      "policies": 4788,
      "correctly": 4789,
      "rolls": 4790,
      "approach": 4791,
      "Huh": 4792,
      "funds": 4793,
      "skiing": 4794,
      "entertainment": 4795,
      "ministration": 4796,
      "VISA": 4797,
      "technology": 4798,
      "bicycle": 4799,
      "invoice": 4800,
      "agenda": 4801,
      "Francis": 4802,
      "86": 4803,
      "Apple": 4804,
      "Fill": 4805,
      "Mart": 4806,
      "Ye": 4807,
      "mut": 4808,
      "nail": 4809,
      "noodles": 4810,
      "pink": 4811,
      "pitch": 4812,
      "ugs": 4813,
      "thus": 4814,
      "ining": 4815,
      "toms": 4816,
      "itself": 4817,
      "ows": 4818,
      "utilities": 4819,
      "neither": 4820,
      "Though": 4821,
      "rap": 4822,
      "prove": 4823,
      "gotta": 4824,
      "printer": 4825,
      "hero": 4826,
      "cling": 4827,
      "pays": 4828,
      "highest": 4829,
      "skirts": 4830,
      "shake": 4831,
      "costu": 4832,
      "contain": 4833,
      "chop": 4834,
      "markets": 4835,
      "hunt": 4836,
      "roads": 4837,
      "vegetarian": 4838,
      "potential": 4839,
      "candy": 4840,
      "subjects": 4841,
      "electricity": 4842,
      "possibility": 4843,
      "difficulties": 4844,
      "massage": 4845,
      "compliment": 4846,
      "supervisor": 4847,
      "flexible": 4848,
      "32": 4849,
      "CP": 4850,
      "Dri": 4851,
      "Dam": 4852,
      "Econ": 4853,
      "Fred": 4854,
      "Kate": 4855,
      "Law": 4856,
      "VD": 4857,
      "pages": 4858,
      "rated": 4859,
      "tz": 4860,
      "umin": 4861,
      "vil": 4862,
      "reached": 4863,
      "mestic": 4864,
      "itive": 4865,
      "stain": 4866,
      "ldom": 4867,
      "arent": 4868,
      "neare": 4869,
      "acious": 4870,
      "cancer": 4871,
      "superi": 4872,
      "shrimp": 4873,
      "ceremony": 4874,
      "debit": 4875,
      "upon": 4876,
      "upstairs": 4877,
      "permit": 4878,
      "hired": 4879,
      "aks": 4880,
      "igning": 4881,
      "coun": 4882,
      "path": 4883,
      "visitors": 4884,
      "setting": 4885,
      "function": 4886,
      "Although": 4887,
      "cris": 4888,
      "mainly": 4889,
      "facial": 4890,
      "deter": 4891,
      "fifth": 4892,
      "considerate": 4893,
      "purse": 4894,
      "foreigners": 4895,
      "windows": 4896,
      "leading": 4897,
      "199": 4898,
      "Kevin": 4899,
      "killing": 4900,
      "concern": 4901,
      "nutr": 4902,
      "officer": 4903,
      "official": 4904,
      "strengths": 4905,
      "frequently": 4906,
      "Personal": 4907,
      "investi": 4908,
      "Corporation": 4909,
      "believable": 4910,
      "congratulations": 4911,
      "1st": 4912,
      "Dave": 4913,
      "Dick": 4914,
      "DVD": 4915,
      "Eve": 4916,
      "Out": 4917,
      "Pal": 4918,
      "Sever": 4919,
      "Yup": 4920,
      "booth": 4921,
      "ccer": 4922,
      "crush": 4923,
      "dirty": 4924,
      "erest": 4925,
      "gorgeous": 4926,
      "nie": 4927,
      "tong": 4928,
      "ued": 4929,
      "uch": 4930,
      "ycho": 4931,
      "remit": 4932,
      "tow": 4933,
      "tories": 4934,
      "itate": 4935,
      "hey": 4936,
      "leng": 4937,
      "ened": 4938,
      "ashed": 4939,
      "altern": 4940,
      "soccer": 4941,
      "china": 4942,
      "verted": 4943,
      "outstanding": 4944,
      "role": 4945,
      "absent": 4946,
      "hole": 4947,
      "shoulder": 4948,
      "managed": 4949,
      "tells": 4950,
      "carrot": 4951,
      "corn": 4952,
      "psycho": 4953,
      "eaten": 4954,
      "household": 4955,
      "breast": 4956,
      "worrying": 4957,
      "regulations": 4958,
      "mile": 4959,
      "chops": 4960,
      "Form": 4961,
      "apartments": 4962,
      "began": 4963,
      "exercising": 4964,
      "customs": 4965,
      "awfully": 4966,
      "streets": 4967,
      "Track": 4968,
      "discussion": 4969,
      "balcon": 4970,
      "clubs": 4971,
      "reliable": 4972,
      "Follow": 4973,
      "normally": 4974,
      "climbing": 4975,
      "communication": 4976,
      "limited": 4977,
      "separate": 4978,
      "establish": 4979,
      "Single": 4980,
      "annoying": 4981,
      "Foreign": 4982,
      "Central": 4983,
      "recogn": 4984,
      "Several": 4985,
      "tongue": 4986,
      "Count": 4987,
      "Dutch": 4988,
      "LA": 4989,
      "Rick": 4990,
      "Same": 4991,
      "Santa": 4992,
      "Work": 4993,
      "gant": 4994,
      "iam": 4995,
      "ired": 4996,
      "ians": 4997,
      "mn": 4998,
      "none": 4999,
      "nap": 5000,
      "tack": 5001,
      "wow": 5002,
      "reward": 5003,
      "ences": 5004,
      "belong": 5005,
      "alumin": 5006,
      "weigh": 5007,
      "rier": 5008,
      "adena": 5009,
      "concent": 5010,
      "ulation": 5011,
      "akers": 5012,
      "cker": 5013,
      "jogging": 5014,
      "buff": 5015,
      "commit": 5016,
      "cles": 5017,
      "male": 5018,
      "pencil": 5019,
      "channel": 5020,
      "labe": 5021,
      "trips": 5022,
      "heading": 5023,
      "William": 5024,
      "recommendation": 5025,
      "barbec": 5026,
      "catching": 5027,
      "falls": 5028,
      "thousands": 5029,
      "photograph": 5030,
      "projects": 5031,
      "USD": 5032,
      "growing": 5033,
      "truck": 5034,
      "slim": 5035,
      "ladies": 5036,
      "satisfactory": 5037,
      "competitive": 5038,
      "eteria": 5039,
      "Loan": 5040,
      "starving": 5041,
      "capital": 5042,
      "Parker": 5043,
      "journal": 5044,
      "venture": 5045,
      "Indian": 5046,
      "divorced": 5047,
      "finger": 5048,
      "valuable": 5049,
      "Honda": 5050,
      "nurse": 5051,
      "cafeteria": 5052,
      "Certificate": 5053,
      "waist": 5054,
      "chemistry": 5055,
      "theatre": 5056,
      "Generally": 5057,
      "compensation": 5058,
      "probation": 5059,
      "moisturi": 5060,
      "nearest": 5061,
      "Daddy": 5062,
      "Especially": 5063,
      "Flight": 5064,
      "Gee": 5065,
      "Haw": 5066,
      "Je": 5067,
      "Karen": 5068,
      "Mal": 5069,
      "Mars": 5070,
      "Mountain": 5071,
      "Open": 5072,
      "Sit": 5073,
      "Sons": 5074,
      "Wo": 5075,
      "ey": 5076,
      "las": 5077,
      "lone": 5078,
      "mig": 5079,
      "rd": 5080,
      "slot": 5081,
      "intention": 5082,
      "toes": 5083,
      "itar": 5084,
      "haust": 5085,
      "ening": 5086,
      "alous": 5087,
      "alarm": 5088,
      "domestic": 5089,
      "rose": 5090,
      "shout": 5091,
      "pepper": 5092,
      "feed": 5093,
      "plates": 5094,
      "ille": 5095,
      "chef": 5096,
      "tenance": 5097,
      "lasts": 5098,
      "downstairs": 5099,
      "mark": 5100,
      "airmail": 5101,
      "angzhou": 5102,
      "central": 5103,
      "thoughtful": 5104,
      "trainer": 5105,
      "sence": 5106,
      "foundation": 5107,
      "passion": 5108,
      "listed": 5109,
      "grew": 5110,
      "sunshine": 5111,
      "joining": 5112,
      "engaged": 5113,
      "horse": 5114,
      "connected": 5115,
      "stressful": 5116,
      "Such": 5117,
      "cockroaches": 5118,
      "Mmmm": 5119,
      "colour": 5120,
      "preparing": 5121,
      "suffer": 5122,
      "crackers": 5123,
      "souvenirs": 5124,
      "bridge": 5125,
      "insect": 5126,
      "College": 5127,
      "Wilson": 5128,
      "neighbour": 5129,
      "WebTrack": 5130,
      "beyond": 5131,
      "WebTracker": 5132,
      "Braz": 5133,
      "IF": 5134,
      "Kit": 5135,
      "LS": 5136,
      "Main": 5137,
      "Nan": 5138,
      "Pat": 5139,
      "cro": 5140,
      "gross": 5141,
      "race": 5142,
      "stood": 5143,
      "tables": 5144,
      "ats": 5145,
      "lli": 5146,
      "memo": 5147,
      "states": 5148,
      "iculous": 5149,
      "wealth": 5150,
      "weird": 5151,
      "iding": 5152,
      "neg": 5153,
      "mosp": 5154,
      "fection": 5155,
      "lored": 5156,
      "Think": 5157,
      "hop": 5158,
      "exe": 5159,
      "ups": 5160,
      "ilton": 5161,
      "trous": 5162,
      "pron": 5163,
      "bush": 5164,
      "bump": 5165,
      "overweight": 5166,
      "commod": 5167,
      "causing": 5168,
      "bles": 5169,
      "finance": 5170,
      "hometown": 5171,
      "drug": 5172,
      "stands": 5173,
      "classmates": 5174,
      "Couldn": 5175,
      "iously": 5176,
      "waitress": 5177,
      "Com": 5178,
      "handling": 5179,
      "salt": 5180,
      "century": 5181,
      "smile": 5182,
      "surface": 5183,
      "contest": 5184,
      "Star": 5185,
      "although": 5186,
      "smoker": 5187,
      "promote": 5188,
      "humor": 5189,
      "tasty": 5190,
      "awesome": 5191,
      "garbage": 5192,
      "fortune": 5193,
      "succeed": 5194,
      "pets": 5195,
      "educational": 5196,
      "promoted": 5197,
      "issues": 5198,
      "writer": 5199,
      "nuts": 5200,
      "instructions": 5201,
      "relative": 5202,
      "Britain": 5203,
      "breathing": 5204,
      "lobby": 5205,
      "gambling": 5206,
      "wireless": 5207,
      "junior": 5208,
      "shooting": 5209,
      "scholarship": 5210,
      "Birth": 5211,
      "gossi": 5212,
      "arently": 5213,
      "superior": 5214,
      "aluminum": 5215,
      "barbecue": 5216,
      "mosphere": 5217,
      "trousers": 5218,
      "Alex": 5219,
      "Cont": 5220,
      "Emor": 5221,
      "Fortun": 5222,
      "Jess": 5223,
      "PI": 5224,
      "Sun": 5225,
      "Sav": 5226,
      "bound": 5227,
      "cit": 5228,
      "fro": 5229,
      "fai": 5230,
      "hes": 5231,
      "jet": 5232,
      "mask": 5233,
      "mild": 5234,
      "vol": 5235,
      "zone": 5236,
      "thick": 5237,
      "intell": 5238,
      "refresh": 5239,
      "heaven": 5240,
      "envy": 5241,
      "beha": 5242,
      "alty": 5243,
      "cher": 5244,
      "accompl": 5245,
      "exhaust": 5246,
      "perm": 5247,
      "condu": 5248,
      "ending": 5249,
      "gee": 5250,
      "twin": 5251,
      "cious": 5252,
      "guard": 5253,
      "stove": 5254,
      "forecast": 5255,
      "whom": 5256,
      "blind": 5257,
      "blouse": 5258,
      "breaking": 5259,
      "addicted": 5260,
      "regret": 5261,
      "jealous": 5262,
      "camping": 5263,
      "departments": 5264,
      "packages": 5265,
      "posted": 5266,
      "fallen": 5267,
      "dropped": 5268,
      "fashioned": 5269,
      "designs": 5270,
      "queen": 5271,
      "tificates": 5272,
      "employment": 5273,
      "dedu": 5274,
      "carrying": 5275,
      "Manager": 5276,
      "earthqu": 5277,
      "coln": 5278,
      "consult": 5279,
      "possibly": 5280,
      "Betty": 5281,
      "reduction": 5282,
      "independent": 5283,
      "Mexico": 5284,
      "Asian": 5285,
      "volunteer": 5286,
      "Drive": 5287,
      "balcony": 5288,
      "lonely": 5289,
      "Emory": 5290,
      "Fortunately": 5291,
      "98": 5292,
      "AC": 5293,
      "Cred": 5294,
      "Clu": 5295,
      "Gate": 5296,
      "Gree": 5297,
      "Los": 5298,
      "Rest": 5299,
      "Ta": 5300,
      "Tian": 5301,
      "Watch": 5302,
      "bachelor": 5303,
      "cav": 5304,
      "equal": 5305,
      "fright": 5306,
      "ged": 5307,
      "gall": 5308,
      "kins": 5309,
      "sne": 5310,
      "umber": 5311,
      "zzy": 5312,
      "influ": 5313,
      "refer": 5314,
      "atmosphere": 5315,
      "towards": 5316,
      "toys": 5317,
      "arily": 5318,
      "enge": 5319,
      "colu": 5320,
      "robe": 5321,
      "ndar": 5322,
      "exist": 5323,
      "Doll": 5324,
      "hip": 5325,
      "forest": 5326,
      "capt": 5327,
      "afterwards": 5328,
      "grate": 5329,
      "Donald": 5330,
      "ademic": 5331,
      "distr": 5332,
      "intosh": 5333,
      "planned": 5334,
      "surg": 5335,
      "create": 5336,
      "lowest": 5337,
      "ridiculous": 5338,
      "farm": 5339,
      "qualities": 5340,
      "picking": 5341,
      "prize": 5342,
      "athlet": 5343,
      "elegant": 5344,
      "detailed": 5345,
      "postcards": 5346,
      "wheel": 5347,
      "depending": 5348,
      "drove": 5349,
      "tempor": 5350,
      "dancer": 5351,
      "sticks": 5352,
      "operate": 5353,
      "employed": 5354,
      "withdrawal": 5355,
      "saving": 5356,
      "Pardon": 5357,
      "jumped": 5358,
      "emails": 5359,
      "challenge": 5360,
      "bidden": 5361,
      "structure": 5362,
      "appetite": 5363,
      "waltz": 5364,
      "decorating": 5365,
      "calendar": 5366,
      "corporation": 5367,
      "corporate": 5368,
      "breathe": 5369,
      "economic": 5370,
      "initial": 5371,
      "departure": 5372,
      "catalogu": 5373,
      "procedure": 5374,
      "resources": 5375,
      "mortgage": 5376,
      "Damn": 5377,
      "investig": 5378,
      "Birthday": 5379,
      "Credit": 5380,
      "Club": 5381,
      "column": 5382,
      "38": 5383,
      "Ca": 5384,
      "Center": 5385,
      "DE": 5386,
      "Ham": 5387,
      "II": 5388,
      "Lan": 5389,
      "Mill": 5390,
      "Mel": 5391,
      "March": 5392,
      "Nancy": 5393,
      "Red": 5394,
      "Yang": 5395,
      "brain": 5396,
      "dney": 5397,
      "ered": 5398,
      "gather": 5399,
      "hum": 5400,
      "kin": 5401,
      "kiss": 5402,
      "rical": 5403,
      "rings": 5404,
      "sor": 5405,
      "tance": 5406,
      "via": 5407,
      "inconvenience": 5408,
      "rear": 5409,
      "release": 5410,
      "enthus": 5411,
      "forts": 5412,
      "lder": 5413,
      "solid": 5414,
      "chilly": 5415,
      "identific": 5416,
      "coach": 5417,
      "tires": 5418,
      "iry": 5419,
      "anybody": 5420,
      "aked": 5421,
      "death": 5422,
      "plug": 5423,
      "tools": 5424,
      "esty": 5425,
      "compare": 5426,
      "however": 5427,
      "sizes": 5428,
      "guitar": 5429,
      "clothing": 5430,
      "diving": 5431,
      "marked": 5432,
      "named": 5433,
      "drugs": 5434,
      "fewer": 5435,
      "fiction": 5436,
      "phones": 5437,
      "lux": 5438,
      "skating": 5439,
      "drives": 5440,
      "personnel": 5441,
      "hearing": 5442,
      "efforts": 5443,
      "broch": 5444,
      "reality": 5445,
      "musical": 5446,
      "woke": 5447,
      "Doesn": 5448,
      "athy": 5449,
      "relations": 5450,
      "treated": 5451,
      "Accord": 5452,
      "temper": 5453,
      "scary": 5454,
      "generation": 5455,
      "trading": 5456,
      "relationships": 5457,
      "Joan": 5458,
      "confirmation": 5459,
      "storage": 5460,
      "collecting": 5461,
      "kilometers": 5462,
      "Lincoln": 5463,
      "engineer": 5464,
      "destroy": 5465,
      "North": 5466,
      "sheets": 5467,
      "crying": 5468,
      "landsca": 5469,
      "beside": 5470,
      "Africa": 5471,
      "arranged": 5472,
      "Sydney": 5473,
      "length": 5474,
      "PIN": 5475,
      "Savings": 5476,
      "enthusi": 5477,
      "95": 5478,
      "Book": 5479,
      "Cal": 5480,
      "Lea": 5481,
      "Long": 5482,
      "Ob": 5483,
      "PLS": 5484,
      "San": 5485,
      "Twent": 5486,
      "Thail": 5487,
      "bs": 5488,
      "equi": 5489,
      "fans": 5490,
      "gay": 5491,
      "gap": 5492,
      "mary": 5493,
      "oce": 5494,
      "pour": 5495,
      "vic": 5496,
      "whis": 5497,
      "llen": 5498,
      "hew": 5499,
      "seldom": 5500,
      "alive": 5501,
      "wels": 5502,
      "admi": 5503,
      "lying": 5504,
      "Yesterday": 5505,
      "shown": 5506,
      "peel": 5507,
      "cereal": 5508,
      "ferences": 5509,
      "worn": 5510,
      "demon": 5511,
      "unbelievable": 5512,
      "themat": 5513,
      "prevent": 5514,
      "committed": 5515,
      "manners": 5516,
      "stocks": 5517,
      "mathemat": 5518,
      "mini": 5519,
      "udy": 5520,
      "meantime": 5521,
      "dizzy": 5522,
      "mornings": 5523,
      "minded": 5524,
      "talks": 5525,
      "waited": 5526,
      "filet": 5527,
      "mium": 5528,
      "collections": 5529,
      "countryside": 5530,
      "obje": 5531,
      "favorable": 5532,
      "flights": 5533,
      "passes": 5534,
      "recommended": 5535,
      "complex": 5536,
      "conditioner": 5537,
      "treatment": 5538,
      "polite": 5539,
      "fields": 5540,
      "Janet": 5541,
      "answers": 5542,
      "hanging": 5543,
      "techni": 5544,
      "developed": 5545,
      "wooden": 5546,
      "Guess": 5547,
      "propose": 5548,
      "Macintosh": 5549,
      "Seriously": 5550,
      "logical": 5551,
      "negotiate": 5552,
      "spirit": 5553,
      "efficiency": 5554,
      "robb": 5555,
      "assigned": 5556,
      "difficulty": 5557,
      "reduced": 5558,
      "multi": 5559,
      "religious": 5560,
      "subscription": 5561,
      "favourite": 5562,
      "methods": 5563,
      "judge": 5564,
      "frame": 5565,
      "shadow": 5566,
      "reply": 5567,
      "coupons": 5568,
      "detective": 5569,
      "fabulous": 5570,
      "Angeles": 5571,
      "Martin": 5572,
      "counse": 5573,
      "carrots": 5574,
      "grateful": 5575,
      "Twenty": 5576,
      "Thailand": 5577,
      "admire": 5578,
      "77": 5579,
      "DD": 5580,
      "FO": 5581,
      "Fif": 5582,
      "Fantastic": 5583,
      "Mine": 5584,
      "Merry": 5585,
      "Talk": 5586,
      "Tony": 5587,
      "Wood": 5588,
      "bare": 5589,
      "chas": 5590,
      "gown": 5591,
      "hh": 5592,
      "iang": 5593,
      "lp": 5594,
      "ration": 5595,
      "racket": 5596,
      "sac": 5597,
      "sink": 5598,
      "wines": 5599,
      "ya": 5600,
      "thirsty": 5601,
      "relieve": 5602,
      "semin": 5603,
      "leaking": 5604,
      "envelo": 5605,
      "chin": 5606,
      "idential": 5607,
      "aces": 5608,
      "irmed": 5609,
      "amins": 5610,
      "amond": 5611,
      "Help": 5612,
      "unfair": 5613,
      "goodness": 5614,
      "Nope": 5615,
      "trou": 5616,
      "overnight": 5617,
      "aving": 5618,
      "stole": 5619,
      "diamond": 5620,
      "classic": 5621,
      "cardboard": 5622,
      "turns": 5623,
      "gged": 5624,
      "sooner": 5625,
      "ully": 5626,
      "fiance": 5627,
      "velous": 5628,
      "throughout": 5629,
      "specialty": 5630,
      "beds": 5631,
      "Alt": 5632,
      "curtain": 5633,
      "credits": 5634,
      "izing": 5635,
      "rainy": 5636,
      "election": 5637,
      "Anne": 5638,
      "pairs": 5639,
      "attending": 5640,
      "instance": 5641,
      "honestly": 5642,
      "placed": 5643,
      "Waiter": 5644,
      "January": 5645,
      "designer": 5646,
      "directions": 5647,
      "developing": 5648,
      "matches": 5649,
      "currently": 5650,
      "models": 5651,
      "Market": 5652,
      "pulled": 5653,
      "chatting": 5654,
      "Micro": 5655,
      "smells": 5656,
      "bothering": 5657,
      "Haha": 5658,
      "European": 5659,
      "cartons": 5660,
      "Sara": 5661,
      "tuition": 5662,
      "Better": 5663,
      "British": 5664,
      "society": 5665,
      "encourage": 5666,
      "audience": 5667,
      "Travel": 5668,
      "understood": 5669,
      "automatic": 5670,
      "platform": 5671,
      "Elvin": 5672,
      "sisters": 5673,
      "Christi": 5674,
      "electronic": 5675,
      "hamburger": 5676,
      "lliant": 5677,
      "identification": 5678,
      "39": 5679,
      "66": 5680,
      "Aw": 5681,
      "Bl": 5682,
      "Chi": 5683,
      "Ed": 5684,
      "Hum": 5685,
      "Laur": 5686,
      "Mus": 5687,
      "Oper": 5688,
      "Scot": 5689,
      "Valent": 5690,
      "Wu": 5691,
      "eager": 5692,
      "fas": 5693,
      "kne": 5694,
      "lamb": 5695,
      "pir": 5696,
      "pul": 5697,
      "zed": 5698,
      "rele": 5699,
      "returning": 5700,
      "heating": 5701,
      "soap": 5702,
      "eti": 5703,
      "outfit": 5704,
      "rific": 5705,
      "ador": 5706,
      "raised": 5707,
      "plot": 5708,
      "plumb": 5709,
      "Nobody": 5710,
      "hier": 5711,
      "needn": 5712,
      "ulance": 5713,
      "cking": 5714,
      "chem": 5715,
      "istics": 5716,
      "sitive": 5717,
      "closes": 5718,
      "dip": 5719,
      "rental": 5720,
      "Read": 5721,
      "careless": 5722,
      "booking": 5723,
      "bookstore": 5724,
      "suppliers": 5725,
      "cleans": 5726,
      "ports": 5727,
      "lord": 5728,
      "speakers": 5729,
      "banking": 5730,
      "sensible": 5731,
      "interviews": 5732,
      "sixteen": 5733,
      "cleaner": 5734,
      "maintenance": 5735,
      "southern": 5736,
      "confirmed": 5737,
      "allowance": 5738,
      "weights": 5739,
      "arriving": 5740,
      "sofa": 5741,
      "grape": 5742,
      "joined": 5743,
      "refuse": 5744,
      "midnight": 5745,
      "sorts": 5746,
      "Step": 5747,
      "fruits": 5748,
      "cheapest": 5749,
      "grandfather": 5750,
      "baseball": 5751,
      "arrangement": 5752,
      "patience": 5753,
      "prints": 5754,
      "printed": 5755,
      "scene": 5756,
      "Guangzhou": 5757,
      "created": 5758,
      "thorough": 5759,
      "physics": 5760,
      "555": 5761,
      "brilliant": 5762,
      "circ": 5763,
      "organization": 5764,
      "combination": 5765,
      "scratch": 5766,
      "target": 5767,
      "strategy": 5768,
      "dorm": 5769,
      "Basically": 5770,
      "heels": 5771,
      "vacuum": 5772,
      "Palace": 5773,
      "Women": 5774,
      "exhausted": 5775,
      "surgery": 5776,
      "Leave": 5777,
      "Laura": 5778,
      "plumbing": 5779,
      "600": 5780,
      "Bang": 5781,
      "Hal": 5782,
      "Na": 5783,
      "Pay": 5784,
      "Si": 5785,
      "Ty": 5786,
      "Thai": 5787,
      "Tina": 5788,
      "Vince": 5789,
      "Wr": 5790,
      "bend": 5791,
      "kyo": 5792,
      "loo": 5793,
      "lation": 5794,
      "lings": 5795,
      "op": 5796,
      "upper": 5797,
      "vior": 5798,
      "inj": 5799,
      "iner": 5800,
      "inner": 5801,
      "inven": 5802,
      "reference": 5803,
      "erob": 5804,
      "ication": 5805,
      "former": 5806,
      "ots": 5807,
      "tips": 5808,
      "agging": 5809,
      "Thirty": 5810,
      "definite": 5811,
      "mush": 5812,
      "hike": 5813,
      "illa": 5814,
      "geo": 5815,
      "joke": 5816,
      "owner": 5817,
      "overdraft": 5818,
      "istant": 5819,
      "duck": 5820,
      "blank": 5821,
      "trial": 5822,
      "rub": 5823,
      "Tokyo": 5824,
      "puzz": 5825,
      "thirteen": 5826,
      "frag": 5827,
      "Neither": 5828,
      "prior": 5829,
      "freed": 5830,
      "filing": 5831,
      "parcel": 5832,
      "charity": 5833,
      "IBA": 5834,
      "purchas": 5835,
      "craft": 5836,
      "attended": 5837,
      "saved": 5838,
      "brothers": 5839,
      "steps": 5840,
      "Kelly": 5841,
      "figured": 5842,
      "pattern": 5843,
      "scient": 5844,
      "capable": 5845,
      "trend": 5846,
      "Management": 5847,
      "Consu": 5848,
      "deserves": 5849,
      "experiences": 5850,
      "safer": 5851,
      "samples": 5852,
      "Hopefully": 5853,
      "cotton": 5854,
      "strike": 5855,
      "branches": 5856,
      "sources": 5857,
      "strength": 5858,
      "brave": 5859,
      "arrested": 5860,
      "political": 5861,
      "passenger": 5862,
      "passengers": 5863,
      "delayed": 5864,
      "flavors": 5865,
      "mirror": 5866,
      "frustrating": 5867,
      "stereo": 5868,
      "School": 5869,
      "historical": 5870,
      "representative": 5871,
      "Emily": 5872,
      "thrill": 5873,
      "buffet": 5874,
      "Hawai": 5875,
      "illegal": 5876,
      "gossip": 5877,
      "faith": 5878,
      "hesitate": 5879,
      "behavior": 5880,
      "earthquake": 5881,
      "Restaurant": 5882,
      "Altadena": 5883,
      "Bea": 5884,
      "Cash": 5885,
      "CIF": 5886,
      "HR": 5887,
      "Imp": 5888,
      "Net": 5889,
      "Nick": 5890,
      "Size": 5891,
      "TO": 5892,
      "Ze": 5893,
      "award": 5894,
      "cow": 5895,
      "east": 5896,
      "efic": 5897,
      "hiring": 5898,
      "link": 5899,
      "mare": 5900,
      "mur": 5901,
      "maker": 5902,
      "pure": 5903,
      "pace": 5904,
      "rand": 5905,
      "slack": 5906,
      "wit": 5907,
      "resolution": 5908,
      "ester": 5909,
      "arrow": 5910,
      "ene": 5911,
      "behave": 5912,
      "assured": 5913,
      "wears": 5914,
      "uts": 5915,
      "ida": 5916,
      "covers": 5917,
      "cosme": 5918,
      "colored": 5919,
      "academic": 5920,
      "antly": 5921,
      "fear": 5922,
      "exit": 5923,
      "delight": 5924,
      "promp": 5925,
      "unhappy": 5926,
      "uncomfortable": 5927,
      "perman": 5928,
      "workshop": 5929,
      "constru": 5930,
      "bleeding": 5931,
      "amen": 5932,
      "actual": 5933,
      "pregn": 5934,
      "lottery": 5935,
      "courage": 5936,
      "blond": 5937,
      "ignon": 5938,
      "hardware": 5939,
      "Eng": 5940,
      "tries": 5941,
      "handic": 5942,
      "image": 5943,
      "surfing": 5944,
      "matur": 5945,
      "steam": 5946,
      "bringing": 5947,
      "signature": 5948,
      "signific": 5949,
      "lesson": 5950,
      "realized": 5951,
      "examination": 5952,
      "chap": 5953,
      "birds": 5954,
      "pardon": 5955,
      "exercises": 5956,
      "Shar": 5957,
      "allows": 5958,
      "boards": 5959,
      "landed": 5960,
      "Brad": 5961,
      "copier": 5962,
      "garlic": 5963,
      "receipts": 5964,
      "discussed": 5965,
      "vegetable": 5966,
      "reflect": 5967,
      "generous": 5968,
      "benefic": 5969,
      "commut": 5970,
      "actions": 5971,
      "burning": 5972,
      "dreamed": 5973,
      "affordable": 5974,
      "introduced": 5975,
      "opera": 5976,
      "arrangements": 5977,
      "salads": 5978,
      "naturally": 5979,
      "tailor": 5980,
      "largest": 5981,
      "quarters": 5982,
      "ysis": 5983,
      "destination": 5984,
      "communicate": 5985,
      "sharing": 5986,
      "ambulance": 5987,
      "grill": 5988,
      "novels": 5989,
      "understor": 5990,
      "tango": 5991,
      "bungee": 5992,
      "analysis": 5993,
      "folk": 5994,
      "Medium": 5995,
      "enterprise": 5996,
      "cabinet": 5997,
      "Yellow": 5998,
      "niece": 5999,
      "negative": 6000,
      "execut": 6001,
      "Contin": 6002,
      "Valentine": 6003,
      "chemical": 6004,
      "circum": 6005,
      "Beaut": 6006,
      "cosmetic": 6007,
      "Aha": 6008,
      "App": 6009,
      "Bri": 6010,
      "Cook": 6011,
      "Coffee": 6012,
      "Either": 6013,
      "EDD": 6014,
      "Games": 6015,
      "Hall": 6016,
      "Kar": 6017,
      "Lat": 6018,
      "Lake": 6019,
      "Mid": 6020,
      "Miao": 6021,
      "Sha": 6022,
      "Tw": 6023,
      "aid": 6024,
      "ba": 6025,
      "cub": 6026,
      "gies": 6027,
      "hook": 6028,
      "kni": 6029,
      "lag": 6030,
      "ost": 6031,
      "wave": 6032,
      "thy": 6033,
      "threw": 6034,
      "inqu": 6035,
      "remove": 6036,
      "recover": 6037,
      "metal": 6038,
      "ites": 6039,
      "stro": 6040,
      "stances": 6041,
      "lean": 6042,
      "leaf": 6043,
      "assure": 6044,
      "aland": 6045,
      "edge": 6046,
      "edition": 6047,
      "ripped": 6048,
      "abilities": 6049,
      "neat": 6050,
      "cance": 6051,
      "suspect": 6052,
      "logo": 6053,
      "ushed": 6054,
      "explan": 6055,
      "comedy": 6056,
      "hydr": 6057,
      "joint": 6058,
      "jokes": 6059,
      "couples": 6060,
      "reeze": 6061,
      "click": 6062,
      "tense": 6063,
      "letting": 6064,
      "brace": 6065,
      "serving": 6066,
      "whose": 6067,
      "marvelous": 6068,
      "handbag": 6069,
      "differently": 6070,
      "tablets": 6071,
      "riding": 6072,
      "speaker": 6073,
      "qualify": 6074,
      "slept": 6075,
      "sixth": 6076,
      "Until": 6077,
      "honors": 6078,
      "followed": 6079,
      "Interest": 6080,
      "systems": 6081,
      "decisions": 6082,
      "Steve": 6083,
      "slipped": 6084,
      "professors": 6085,
      "compete": 6086,
      "organized": 6087,
      "Maria": 6088,
      "animal": 6089,
      "improvement": 6090,
      "steaks": 6091,
      "Julie": 6092,
      "borrowed": 6093,
      "processing": 6094,
      "complaints": 6095,
      "scores": 6096,
      "divided": 6097,
      "notebook": 6098,
      "unique": 6099,
      "kilos": 6100,
      "antique": 6101,
      "creative": 6102,
      "Indeed": 6103,
      "banquet": 6104,
      "frequent": 6105,
      "shuttle": 6106,
      "announce": 6107,
      "violence": 6108,
      "strawberry": 6109,
      "affairs": 6110,
      "concentrate": 6111,
      "counselor": 6112,
      "barely": 6113,
      "freedom": 6114,
      "Hawaii": 6115,
      "Zealand": 6116,
      "amenities": 6117,
      "1000": 6118,
      "3rd": 6119,
      "900": 6120,
      "Back": 6121,
      "Ent": 6122,
      "ETV": 6123,
      "Hilton": 6124,
      "Judy": 6125,
      "Later": 6126,
      "Swe": 6127,
      "Stra": 6128,
      "Seat": 6129,
      "Umm": 6130,
      "Whe": 6131,
      "groom": 6132,
      "iest": 6133,
      "py": 6134,
      "pam": 6135,
      "pun": 6136,
      "rash": 6137,
      "tti": 6138,
      "tiny": 6139,
      "threat": 6140,
      "revo": 6141,
      "towels": 6142,
      "essen": 6143,
      "stressed": 6144,
      "assed": 6145,
      "albu": 6146,
      "outgoing": 6147,
      "rial": 6148,
      "tied": 6149,
      "aby": 6150,
      "irley": 6151,
      "summ": 6152,
      "getic": 6153,
      "united": 6154,
      "ental": 6155,
      "workshops": 6156,
      "contr": 6157,
      "convin": 6158,
      "ults": 6159,
      "resign": 6160,
      "tions": 6161,
      "cheating": 6162,
      "apped": 6163,
      "apparently": 6164,
      "sert": 6165,
      "happier": 6166,
      "wholes": 6167,
      "asks": 6168,
      "lawn": 6169,
      "highway": 6170,
      "immig": 6171,
      "matched": 6172,
      "lley": 6173,
      "trained": 6174,
      "cycling": 6175,
      "balls": 6176,
      "curly": 6177,
      "realtor": 6178,
      "expectations": 6179,
      "bird": 6180,
      "matters": 6181,
      "suites": 6182,
      "prescribe": 6183,
      "cookies": 6184,
      "bandages": 6185,
      "sellers": 6186,
      "Shirley": 6187,
      "tourni": 6188,
      "Mont": 6189,
      "landlord": 6190,
      "attendant": 6191,
      "institut": 6192,
      "blackout": 6193,
      "drops": 6194,
      "photography": 6195,
      "leads": 6196,
      "bench": 6197,
      "truly": 6198,
      "websites": 6199,
      "winning": 6200,
      "basement": 6201,
      "Jimmy": 6202,
      "scientific": 6203,
      "fuel": 6204,
      "appropri": 6205,
      "viding": 6206,
      "energetic": 6207,
      "spoil": 6208,
      "calcul": 6209,
      "jamin": 6210,
      "Times": 6211,
      "Harry": 6212,
      "robbed": 6213,
      "snacks": 6214,
      "gamble": 6215,
      "Benjamin": 6216,
      "scarf": 6217,
      "chosen": 6218,
      "railway": 6219,
      "seventy": 6220,
      "dentist": 6221,
      "occupation": 6222,
      "lungs": 6223,
      "manufacturer": 6224,
      "alternatives": 6225,
      "accomplish": 6226,
      "Greek": 6227,
      "robbery": 6228,
      "Microsoft": 6229,
      "fascin": 6230,
      "Half": 6231,
      "permanent": 6232,
      "maturity": 6233,
      "tourniquet": 6234,
      "Ask": 6235,
      "Ear": 6236,
      "MS": 6237,
      "Mad": 6238,
      "NBA": 6239,
      "Smo": 6240,
      "Teach": 6241,
      "Tax": 6242,
      "Yi": 6243,
      "aled": 6244,
      "aerob": 6245,
      "eli": 6246,
      "fers": 6247,
      "imbur": 6248,
      "narrow": 6249,
      "pow": 6250,
      "patch": 6251,
      "shave": 6252,
      "tat": 6253,
      "wound": 6254,
      "wool": 6255,
      "yan": 6256,
      "info": 6257,
      "reimbur": 6258,
      "anic": 6259,
      "vember": 6260,
      "sta": 6261,
      "bered": 6262,
      "oosing": 6263,
      "ghost": 6264,
      "outdoor": 6265,
      "termin": 6266,
      "shan": 6267,
      "urt": 6268,
      "deals": 6269,
      "ased": 6270,
      "November": 6271,
      "igno": 6272,
      "trash": 6273,
      "cheque": 6274,
      "couch": 6275,
      "ief": 6276,
      "paycheck": 6277,
      "monitor": 6278,
      "liter": 6279,
      "dili": 6280,
      "internal": 6281,
      "Rebec": 6282,
      "drama": 6283,
      "rumor": 6284,
      "supper": 6285,
      "drivers": 6286,
      "watches": 6287,
      "wardrobe": 6288,
      "positions": 6289,
      "shortly": 6290,
      "windy": 6291,
      "returned": 6292,
      "profic": 6293,
      "contracts": 6294,
      "discounts": 6295,
      "unex": 6296,
      "dances": 6297,
      "stronger": 6298,
      "profession": 6299,
      "environmental": 6300,
      "lecture": 6301,
      "approval": 6302,
      "steamed": 6303,
      "capac": 6304,
      "fighting": 6305,
      "immediate": 6306,
      "storms": 6307,
      "flea": 6308,
      "negotiation": 6309,
      "Robin": 6310,
      "voting": 6311,
      "Leo": 6312,
      "provided": 6313,
      "Class": 6314,
      "exceed": 6315,
      "preparation": 6316,
      "argue": 6317,
      "scram": 6318,
      "established": 6319,
      "peaceful": 6320,
      "automatically": 6321,
      "vitamins": 6322,
      "rewarding": 6323,
      "label": 6324,
      "insects": 6325,
      "influence": 6326,
      "enthusiastic": 6327,
      "Latin": 6328,
      "tattoo": 6329,
      "Rebecca": 6330,
      "42": 6331,
      "5th": 6332,
      "Au": 6333,
      "Around": 6334,
      "CE": 6335,
      "Gold": 6336,
      "Having": 6337,
      "Jerry": 6338,
      "Lots": 6339,
      "Ming": 6340,
      "Non": 6341,
      "Ping": 6342,
      "Rel": 6343,
      "Seven": 6344,
      "Sum": 6345,
      "Spain": 6346,
      "Under": 6347,
      "Van": 6348,
      "Visa": 6349,
      "breeze": 6350,
      "ige": 6351,
      "jazz": 6352,
      "ky": 6353,
      "mac": 6354,
      "oline": 6355,
      "rink": 6356,
      "uck": 6357,
      "vant": 6358,
      "vouch": 6359,
      "wis": 6360,
      "thunderstor": 6361,
      "inqui": 6362,
      "ancing": 6363,
      "towel": 6364,
      "erable": 6365,
      "hell": 6366,
      "leak": 6367,
      "beers": 6368,
      "aspect": 6369,
      "wipe": 6370,
      "lian": 6371,
      "chill": 6372,
      "dose": 6373,
      "tile": 6374,
      "accur": 6375,
      "administration": 6376,
      "shoot": 6377,
      "feature": 6378,
      "loso": 6379,
      "quis": 6380,
      "ender": 6381,
      "useless": 6382,
      "poison": 6383,
      "iger": 6384,
      "Anderson": 6385,
      "newly": 6386,
      "prison": 6387,
      "bull": 6388,
      "herself": 6389,
      "ouses": 6390,
      "assy": 6391,
      "assing": 6392,
      "gum": 6393,
      "greatly": 6394,
      "buyer": 6395,
      "mustn": 6396,
      "intern": 6397,
      "interpre": 6398,
      "interrupt": 6399,
      "impact": 6400,
      "nightmare": 6401,
      "anges": 6402,
      "miserable": 6403,
      "sidewalk": 6404,
      "lorida": 6405,
      "fastest": 6406,
      "oking": 6407,
      "stranger": 6408,
      "walks": 6409,
      "Stay": 6410,
      "ointment": 6411,
      "appointments": 6412,
      "winds": 6413,
      "holders": 6414,
      "sleepy": 6415,
      "dresses": 6416,
      "programmes": 6417,
      "quicker": 6418,
      "extent": 6419,
      "arrives": 6420,
      "arrival": 6421,
      "IBM": 6422,
      "eighty": 6423,
      "medication": 6424,
      "dieting": 6425,
      "employers": 6426,
      "fluently": 6427,
      "continu": 6428,
      "warmer": 6429,
      "dreams": 6430,
      "deadlines": 6431,
      "reminds": 6432,
      "relief": 6433,
      "crowd": 6434,
      "appeal": 6435,
      "Australian": 6436,
      "Italy": 6437,
      "Germany": 6438,
      "Carol": 6439,
      "wrapped": 6440,
      "circul": 6441,
      "spirits": 6442,
      "Airlines": 6443,
      "universe": 6444,
      "organizing": 6445,
      "lobster": 6446,
      "selected": 6447,
      "tricks": 6448,
      "dumplings": 6449,
      "Windows": 6450,
      "lifesty": 6451,
      "collar": 6452,
      "analy": 6453,
      "philoso": 6454,
      "predic": 6455,
      "Charles": 6456,
      "obviously": 6457,
      "categ": 6458,
      "Claim": 6459,
      "nails": 6460,
      "Econom": 6461,
      "photographs": 6462,
      "temporary": 6463,
      "victi": 6464,
      "curtains": 6465,
      "Continued": 6466,
      "stroke": 6467,
      "Interesting": 6468,
      "Straight": 6469,
      "revocable": 6470,
      "Aut": 6471,
      "Again": 6472,
      "Ber": 6473,
      "Cup": 6474,
      "Cap": 6475,
      "Las": 6476,
      "PA": 6477,
      "Ryan": 6478,
      "Tv": 6479,
      "Tex": 6480,
      "bac": 6481,
      "bone": 6482,
      "cti": 6483,
      "cery": 6484,
      "dread": 6485,
      "diction": 6486,
      "ev": 6487,
      "fy": 6488,
      "gments": 6489,
      "lus": 6490,
      "mbo": 6491,
      "mbered": 6492,
      "sso": 6493,
      "tid": 6494,
      "tub": 6495,
      "vince": 6496,
      "ream": 6497,
      "ane": 6498,
      "tore": 6499,
      "toward": 6500,
      "orn": 6501,
      "veled": 6502,
      "ican": 6503,
      "asing": 6504,
      "alley": 6505,
      "liest": 6506,
      "choosing": 6507,
      "dol": 6508,
      "adults": 6509,
      "ambit": 6510,
      "entry": 6511,
      "conserv": 6512,
      "ctual": 6513,
      "bled": 6514,
      "shoulders": 6515,
      "cheek": 6516,
      "chedu": 6517,
      "clar": 6518,
      "managers": 6519,
      "backpack": 6520,
      "traveled": 6521,
      "minton": 6522,
      "carried": 6523,
      "Reg": 6524,
      "dislike": 6525,
      "disagree": 6526,
      "badminton": 6527,
      "Pleased": 6528,
      "rum": 6529,
      "Coke": 6530,
      "housework": 6531,
      "stays": 6532,
      "creation": 6533,
      "imports": 6534,
      "pected": 6535,
      "Stars": 6536,
      "fourteen": 6537,
      "20th": 6538,
      "founded": 6539,
      "vacant": 6540,
      "billion": 6541,
      "crashed": 6542,
      "passing": 6543,
      "sells": 6544,
      "awake": 6545,
      "buildings": 6546,
      "response": 6547,
      "posters": 6548,
      "cups": 6549,
      "attendants": 6550,
      "ctors": 6551,
      "surprising": 6552,
      "elected": 6553,
      "180": 6554,
      "18th": 6555,
      "beaches": 6556,
      "disturb": 6557,
      "approved": 6558,
      "saves": 6559,
      "reminding": 6560,
      "complaint": 6561,
      "equally": 6562,
      "dozens": 6563,
      "engineering": 6564,
      "yoga": 6565,
      "exports": 6566,
      "sandwiches": 6567,
      "stamp": 6568,
      "documentary": 6569,
      "ginger": 6570,
      "source": 6571,
      "museums": 6572,
      "Honest": 6573,
      "economics": 6574,
      "religion": 6575,
      "initi": 6576,
      "knock": 6577,
      "efficiently": 6578,
      "folks": 6579,
      "grocery": 6580,
      "Korea": 6581,
      "Romans": 6582,
      "Sandals": 6583,
      "slightly": 6584,
      "cancelled": 6585,
      "liquor": 6586,
      "recognize": 6587,
      "frozen": 6588,
      "intellig": 6589,
      "brochure": 6590,
      "mathematics": 6591,
      "relevant": 6592,
      "prompt": 6593,
      "hydrated": 6594,
      "Seattle": 6595,
      "Smoking": 6596,
      "powder": 6597,
      "capacity": 6598,
      "Autumn": 6599,
      "110": 6600,
      "48": 6601,
      "::": 6602,
      "Ay": 6603,
      "CV": 6604,
      "Dian": 6605,
      "Dinner": 6606,
      "Eric": 6607,
      "Florida": 6608,
      "Hill": 6609,
      "IK": 6610,
      "Must": 6611,
      "Mag": 6612,
      "NY": 6613,
      "Oaks": 6614,
      "RE": 6615,
      "Ru": 6616,
      "Tit": 6617,
      "Tang": 6618,
      "UK": 6619,
      "Use": 6620,
      "bust": 6621,
      "baking": 6622,
      "cen": 6623,
      "fles": 6624,
      "garet": 6625,
      "mignon": 6626,
      "pha": 6627,
      "pad": 6628,
      "pill": 6629,
      "packet": 6630,
      "sess": 6631,
      "swo": 6632,
      "swear": 6633,
      "signing": 6634,
      "tap": 6635,
      "wars": 6636,
      "whit": 6637,
      "inct": 6638,
      "inting": 6639,
      "inspir": 6640,
      "rem": 6641,
      "theory": 6642,
      "espres": 6643,
      "stable": 6644,
      "leis": 6645,
      "enroll": 6646,
      "forced": 6647,
      "coin": 6648,
      "coins": 6649,
      "abor": 6650,
      "adium": 6651,
      "Its": 6652,
      "raw": 6653,
      "deb": 6654,
      "providing": 6655,
      "unci": 6656,
      "concept": 6657,
      "consum": 6658,
      "endy": 6659,
      "cheated": 6660,
      "bug": 6661,
      "overhead": 6662,
      "twist": 6663,
      "premium": 6664,
      "clou": 6665,
      "eking": 6666,
      "civil": 6667,
      "brake": 6668,
      "grind": 6669,
      "serves": 6670,
      "dim": 6671,
      "airline": 6672,
      "nerve": 6673,
      "disk": 6674,
      "discovered": 6675,
      "Allen": 6676,
      "surf": 6677,
      "Anytime": 6678,
      "contro": 6679,
      "childhood": 6680,
      "State": 6681,
      "sensitive": 6682,
      "sleeve": 6683,
      "Life": 6684,
      "Johnny": 6685,
      "lists": 6686,
      "tours": 6687,
      "conflic": 6688,
      "facilities": 6689,
      "tasted": 6690,
      "appreciated": 6691,
      "extro": 6692,
      "respond": 6693,
      "cashier": 6694,
      "Tech": 6695,
      "floors": 6696,
      "atory": 6697,
      "cooler": 6698,
      "grapes": 6699,
      "advise": 6700,
      "advanced": 6701,
      "25th": 6702,
      "Janice": 6703,
      "publicity": 6704,
      "Boy": 6705,
      "Holly": 6706,
      "gaining": 6707,
      "ladder": 6708,
      "connections": 6709,
      "Margaret": 6710,
      "killer": 6711,
      "estimate": 6712,
      "sils": 6713,
      "coats": 6714,
      "cuis": 6715,
      "curi": 6716,
      "polling": 6717,
      "screw": 6718,
      "honeymoon": 6719,
      "duties": 6720,
      "powerful": 6721,
      "expression": 6722,
      "buttons": 6723,
      "cooperate": 6724,
      "toothache": 6725,
      "brakes": 6726,
      "combined": 6727,
      "assignment": 6728,
      "Grandma": 6729,
      "regarding": 6730,
      "21st": 6731,
      "suffered": 6732,
      "occasionally": 6733,
      "Travell": 6734,
      "Mexican": 6735,
      "porterhouse": 6736,
      "Disney": 6737,
      "Sales": 6738,
      "severe": 6739,
      "pilgri": 6740,
      "expanding": 6741,
      "Channel": 6742,
      "attracted": 6743,
      "remittance": 6744,
      "pronunci": 6745,
      "relatively": 6746,
      "Calm": 6747,
      "ocean": 6748,
      "fiancee": 6749,
      "injured": 6750,
      "pregnant": 6751,
      "circumstances": 6752,
      "cosmetics": 6753,
      "Brian": 6754,
      "inquiry": 6755,
      "explanation": 6756,
      "Whenever": 6757,
      "appropriate": 6758,
      "CEO": 6759,
      "IKE": 6760,
      "swollen": 6761,
      "espresso": 6762,
      "2000": 6763,
      "37": 6764,
      "Big": 6765,
      "Cant": 6766,
      "Des": 6767,
      "Done": 6768,
      "Dear": 6769,
      "During": 6770,
      "Easter": 6771,
      "Easy": 6772,
      "Friend": 6773,
      "Foods": 6774,
      "IQ": 6775,
      "Jill": 6776,
      "MP": 6777,
      "NT": 6778,
      "Nah": 6779,
      "Part": 6780,
      "Phi": 6781,
      "Pick": 6782,
      "Ret": 6783,
      "Tower": 6784,
      "Var": 6785,
      "bou": 6786,
      "dd": 6787,
      "dough": 6788,
      "dise": 6789,
      "eh": 6790,
      "eigh": 6791,
      "gust": 6792,
      "hide": 6793,
      "ib": 6794,
      "ius": 6795,
      "lates": 6796,
      "lamp": 6797,
      "nick": 6798,
      "ole": 6799,
      "sion": 6800,
      "vices": 6801,
      "thand": 6802,
      "intense": 6803,
      "anket": 6804,
      "anley": 6805,
      "theast": 6806,
      "onese": 6807,
      "ita": 6808,
      "stall": 6809,
      "stery": 6810,
      "keeper": 6811,
      "liday": 6812,
      "cope": 6813,
      "actors": 6814,
      "accommod": 6815,
      "mystery": 6816,
      "Wei": 6817,
      "Young": 6818,
      "sung": 6819,
      "pear": 6820,
      "lover": 6821,
      "exquis": 6822,
      "dehydrated": 6823,
      "artist": 6824,
      "plum": 6825,
      "mental": 6826,
      "romise": 6827,
      "compared": 6828,
      "cheques": 6829,
      "spacious": 6830,
      "overall": 6831,
      "comer": 6832,
      "causes": 6833,
      "minals": 6834,
      "ketch": 6835,
      "closing": 6836,
      "blanket": 6837,
      "finals": 6838,
      "dragon": 6839,
      "disput": 6840,
      "angers": 6841,
      "phon": 6842,
      "learner": 6843,
      "salty": 6844,
      "High": 6845,
      "desire": 6846,
      "freezing": 6847,
      "Stanley": 6848,
      "suburb": 6849,
      "colorful": 6850,
      "certificates": 6851,
      "symbo": 6852,
      "confusing": 6853,
      "begins": 6854,
      "factories": 6855,
      "cupboard": 6856,
      "taxes": 6857,
      "uccin": 6858,
      "stuffed": 6859,
      "published": 6860,
      "magic": 6861,
      "flag": 6862,
      "coverage": 6863,
      "leaders": 6864,
      "percentage": 6865,
      "electrical": 6866,
      "brands": 6867,
      "Holiday": 6868,
      "blosso": 6869,
      "introduction": 6870,
      "hospitality": 6871,
      "opinions": 6872,
      "gasoline": 6873,
      "accidentally": 6874,
      "taller": 6875,
      "Foster": 6876,
      "Lucky": 6877,
      "Post": 6878,
      "involves": 6879,
      "remembered": 6880,
      "activity": 6881,
      "castle": 6882,
      "flew": 6883,
      "banan": 6884,
      "chairs": 6885,
      "argument": 6886,
      "smoothly": 6887,
      "contribute": 6888,
      "itute": 6889,
      "symptoms": 6890,
      "weaknesses": 6891,
      "Korean": 6892,
      "River": 6893,
      "principles": 6894,
      "embarrassing": 6895,
      "Russian": 6896,
      "secure": 6897,
      "rugby": 6898,
      "shorter": 6899,
      "shift": 6900,
      "contains": 6901,
      "shouting": 6902,
      "passionate": 6903,
      "Kitty": 6904,
      "citiz": 6905,
      "sneakers": 6906,
      "DEL": 6907,
      "Obama": 6908,
      "complexion": 6909,
      "Christian": 6910,
      "Blue": 6911,
      "Twice": 6912,
      "canceled": 6913,
      "summers": 6914,
      "convinced": 6915,
      "lleyball": 6916,
      "unexpected": 6917,
      "inquire": 6918,
      "Cantonese": 6919,
      "eighth": 6920,
      "exquisite": 6921,
      "59": 6922,
      "64": 6923,
      "84": 6924,
      "Agency": 6925,
      "Broad": 6926,
      "Cath": 6927,
      "Da": 6928,
      "Deve": 6929,
      "Egy": 6930,
      "IC": 6931,
      "Ir": 6932,
      "Ice": 6933,
      "Lit": 6934,
      "Muse": 6935,
      "Much": 6936,
      "Oo": 6937,
      "Power": 6938,
      "Sho": 6939,
      "bail": 6940,
      "biz": 6941,
      "baker": 6942,
      "cm": 6943,
      "cet": 6944,
      "fou": 6945,
      "fridge": 6946,
      "gic": 6947,
      "gig": 6948,
      "mouse": 6949,
      "ored": 6950,
      "tank": 6951,
      "vase": 6952,
      "vest": 6953,
      "xious": 6954,
      "inum": 6955,
      "infect": 6956,
      "rehen": 6957,
      "seated": 6958,
      "anda": 6959,
      "ensure": 6960,
      "aspir": 6961,
      "lims": 6962,
      "chili": 6963,
      "dom": 6964,
      "cosmo": 6965,
      "advis": 6966,
      "adult": 6967,
      "adian": 6968,
      "gosh": 6969,
      "sund": 6970,
      "tering": 6971,
      "moves": 6972,
      "pei": 6973,
      "someday": 6974,
      "somehow": 6975,
      "daytime": 6976,
      "Through": 6977,
      "washer": 6978,
      "excl": 6979,
      "rais": 6980,
      "Health": 6981,
      "nov": 6982,
      "aint": 6983,
      "helmet": 6984,
      "spread": 6985,
      "boiled": 6986,
      "Canadian": 6987,
      "pretend": 6988,
      "ousy": 6989,
      "roommates": 6990,
      "eping": 6991,
      "manic": 6992,
      "wellery": 6993,
      "wherever": 6994,
      "intersection": 6995,
      "fined": 6996,
      "pharm": 6997,
      "learnt": 6998,
      "oldest": 6999,
      "earliest": 7000,
      "surround": 7001,
      "matt": 7002,
      "Nowadays": 7003,
      "shade": 7004,
      "signal": 7005,
      "region": 7006,
      "ballot": 7007,
      "jewel": 7008,
      "beautifully": 7009,
      "string": 7010,
      "interviewed": 7011,
      "privac": 7012,
      "healthier": 7013,
      "cooker": 7014,
      "certi": 7015,
      "travelers": 7016,
      "password": 7017,
      "painful": 7018,
      "Shan": 7019,
      "testing": 7020,
      "scheme": 7021,
      "purple": 7022,
      "attendance": 7023,
      "aughty": 7024,
      "flood": 7025,
      "flick": 7026,
      "flash": 7027,
      "Without": 7028,
      "slides": 7029,
      "Taipei": 7030,
      "competent": 7031,
      "operator": 7032,
      "loads": 7033,
      "nonsmoking": 7034,
      "distri": 7035,
      "issued": 7036,
      "throwing": 7037,
      "celebration": 7038,
      "spoke": 7039,
      "buddy": 7040,
      "safely": 7041,
      "Carl": 7042,
      "exhibits": 7043,
      "creating": 7044,
      "champion": 7045,
      "Accounting": 7046,
      "fingers": 7047,
      "decorate": 7048,
      "rarely": 7049,
      "hills": 7050,
      "equipments": 7051,
      "cruise": 7052,
      "candidates": 7053,
      "independently": 7054,
      "Asia": 7055,
      "talented": 7056,
      "platinum": 7057,
      "announced": 7058,
      "explore": 7059,
      "Termin": 7060,
      "grocer": 7061,
      "harmful": 7062,
      "embarrassed": 7063,
      "shorthand": 7064,
      "eventually": 7065,
      "ninety": 7066,
      "mechanical": 7067,
      "costumes": 7068,
      "catalogue": 7069,
      "Music": 7070,
      "Opera": 7071,
      "significant": 7072,
      "pamph": 7073,
      "contrary": 7074,
      "wholesale": 7075,
      "ignore": 7076,
      "circulation": 7077,
      "Titanic": 7078,
      "Traveller": 7079,
      "IKEA": 7080,
      "Develo": 7081,
      "Museum": 7082,
      "aspirin": 7083,
      "privacy": 7084,
      "67": 7085,
      "87": 7086,
      "Cha": 7087,
      "Cus": 7088,
      "Cross": 7089,
      "Dal": 7090,
      "Dig": 7091,
      "Ling": 7092,
      "Nine": 7093,
      "Ple": 7094,
      "Plus": 7095,
      "Peking": 7096,
      "Still": 7097,
      "Tea": 7098,
      "Wal": 7099,
      "Wish": 7100,
      "Wars": 7101,
      "bin": 7102,
      "elder": 7103,
      "fto": 7104,
      "gurt": 7105,
      "jin": 7106,
      "jack": 7107,
      "jail": 7108,
      "kers": 7109,
      "lousy": 7110,
      "mous": 7111,
      "pong": 7112,
      "rit": 7113,
      "yen": 7114,
      "zers": 7115,
      "retired": 7116,
      "ano": 7117,
      "onest": 7118,
      "onents": 7119,
      "oral": 7120,
      "island": 7121,
      "semi": 7122,
      "lefto": 7123,
      "oots": 7124,
      "editor": 7125,
      "lips": 7126,
      "chief": 7127,
      "coinc": 7128,
      "tiles": 7129,
      "absence": 7130,
      "irrevocable": 7131,
      "shining": 7132,
      "ague": 7133,
      "perform": 7134,
      "reschedu": 7135,
      "fox": 7136,
      "comfort": 7137,
      "weekly": 7138,
      "maid": 7139,
      "grace": 7140,
      "situ": 7141,
      "penalty": 7142,
      "buyers": 7143,
      "cara": 7144,
      "integr": 7145,
      "puts": 7146,
      "classroom": 7147,
      "classified": 7148,
      "visitor": 7149,
      "imple": 7150,
      "earrings": 7151,
      "shared": 7152,
      "headed": 7153,
      "steward": 7154,
      "auction": 7155,
      "curry": 7156,
      "muscles": 7157,
      "Whole": 7158,
      "rained": 7159,
      "shorts": 7160,
      "vacancy": 7161,
      "population": 7162,
      "cliff": 7163,
      "deposits": 7164,
      "mascara": 7165,
      "reported": 7166,
      "extend": 7167,
      "wheat": 7168,
      "relaxation": 7169,
      "dishonest": 7170,
      "practicing": 7171,
      "treats": 7172,
      "magn": 7173,
      "Trade": 7174,
      "introverted": 7175,
      "advertised": 7176,
      "blog": 7177,
      "loading": 7178,
      "Grant": 7179,
      "Cheques": 7180,
      "fortunate": 7181,
      "Taiwanese": 7182,
      "complaining": 7183,
      "quarrel": 7184,
      "levels": 7185,
      "proposed": 7186,
      "adapt": 7187,
      "textbooks": 7188,
      "venues": 7189,
      "micro": 7190,
      "Moreover": 7191,
      "challenges": 7192,
      "regards": 7193,
      "appearance": 7194,
      "installation": 7195,
      "Corporate": 7196,
      "leadership": 7197,
      "galax": 7198,
      "knocked": 7199,
      "Roberts": 7200,
      "participate": 7201,
      "spray": 7202,
      "rapid": 7203,
      "costume": 7204,
      "chopsticks": 7205,
      "hunting": 7206,
      "luxury": 7207,
      "bracelet": 7208,
      "essential": 7209,
      "manufacturers": 7210,
      "fascinating": 7211,
      "reimburse": 7212,
      "proficient": 7213,
      "Relax": 7214,
      "lifestyle": 7215,
      "conservative": 7216,
      "Honestly": 7217,
      "uccino": 7218,
      "mattress": 7219,
      "85": 7220,
      "89": 7221,
      "Di": 7222,
      "Dor": 7223,
      "Dar": 7224,
      "Eli": 7225,
      "Ether": 7226,
      "Fac": 7227,
      "Gone": 7228,
      "Gra": 7229,
      "Garden": 7230,
      "Jor": 7231,
      "Lad": 7232,
      "Mil": 7233,
      "Number": 7234,
      "Oscar": 7235,
      "Pizza": 7236,
      "Sp": 7237,
      "Sou": 7238,
      "Sme": 7239,
      "Shi": 7240,
      "Tiger": 7241,
      "Ugh": 7242,
      "Winter": 7243,
      "Wendy": 7244,
      "bind": 7245,
      "bothers": 7246,
      "emot": 7247,
      "fet": 7248,
      "fountain": 7249,
      "hid": 7250,
      "hmm": 7251,
      "kung": 7252,
      "lting": 7253,
      "loun": 7254,
      "nam": 7255,
      "nity": 7256,
      "naughty": 7257,
      "ray": 7258,
      "sake": 7259,
      "sive": 7260,
      "va": 7261,
      "insured": 7262,
      "itiner": 7263,
      "sti": 7264,
      "stones": 7265,
      "arbit": 7266,
      "andy": 7267,
      "beth": 7268,
      "aysi": 7269,
      "soph": 7270,
      "chick": 7271,
      "coal": 7272,
      "outdoors": 7273,
      "nect": 7274,
      "admission": 7275,
      "ndid": 7276,
      "susp": 7277,
      "suited": 7278,
      "shu": 7279,
      "plendid": 7280,
      "fel": 7281,
      "fellow": 7282,
      "loses": 7283,
      "seeking": 7284,
      "thered": 7285,
      "decre": 7286,
      "unable": 7287,
      "persu": 7288,
      "ureau": 7289,
      "blend": 7290,
      "ilty": 7291,
      "estate": 7292,
      "amend": 7293,
      "spill": 7294,
      "fold": 7295,
      "cia": 7296,
      "guilty": 7297,
      "mango": 7298,
      "species": 7299,
      "stomac": 7300,
      "happiness": 7301,
      "Thanksgiving": 7302,
      "dram": 7303,
      "Inn": 7304,
      "ilding": 7305,
      "lighting": 7306,
      "ggle": 7307,
      "salaries": 7308,
      "differences": 7309,
      "Todd": 7310,
      "ashes": 7311,
      "suppor": 7312,
      "shares": 7313,
      "persons": 7314,
      "importance": 7315,
      "cleared": 7316,
      "produc": 7317,
      "invoking": 7318,
      "freeze": 7319,
      "specials": 7320,
      "agreeable": 7321,
      "jewellery": 7322,
      "Station": 7323,
      "cutting": 7324,
      "bankrupt": 7325,
      "examples": 7326,
      "chased": 7327,
      "nause": 7328,
      "sleeper": 7329,
      "primary": 7330,
      "availability": 7331,
      "Going": 7332,
      "valid": 7333,
      "values": 7334,
      "packaging": 7335,
      "custom": 7336,
      "tourists": 7337,
      "factor": 7338,
      "recipes": 7339,
      "depositing": 7340,
      "seventh": 7341,
      "12th": 7342,
      "foreigner": 7343,
      "media": 7344,
      "volleyball": 7345,
      "tempting": 7346,
      "Trading": 7347,
      "applicants": 7348,
      "sticker": 7349,
      "Mostly": 7350,
      "burgers": 7351,
      "organize": 7352,
      "delicate": 7353,
      "Getting": 7354,
      "roller": 7355,
      "401": 7356,
      "accidents": 7357,
      "charging": 7358,
      "Cheer": 7359,
      "nicer": 7360,
      "industrial": 7361,
      "quitting": 7362,
      "assistance": 7363,
      "dreaming": 7364,
      "apore": 7365,
      "desserts": 7366,
      "jams": 7367,
      "Huang": 7368,
      "imagined": 7369,
      "colleague": 7370,
      "scenes": 7371,
      "deeply": 7372,
      "guaranteed": 7373,
      "yogurt": 7374,
      "bonuses": 7375,
      "experiencing": 7376,
      "Arden": 7377,
      "agrees": 7378,
      "polluted": 7379,
      "critical": 7380,
      "ancies": 7381,
      "viol": 7382,
      "audi": 7383,
      "alcoholic": 7384,
      "isticated": 7385,
      "Singapore": 7386,
      "Building": 7387,
      "spectac": 7388,
      "browsing": 7389,
      "buns": 7390,
      "method": 7391,
      "commercials": 7392,
      "frankly": 7393,
      "frustrated": 7394,
      "enterprises": 7395,
      "principle": 7396,
      "stealing": 7397,
      "strawberries": 7398,
      "Russia": 7399,
      "boost": 7400,
      "lemonade": 7401,
      "constantly": 7402,
      "crisp": 7403,
      "nutrition": 7404,
      "committee": 7405,
      "Geez": 7406,
      "Malaysi": 7407,
      "suffering": 7408,
      "neighbourhood": 7409,
      "bumper": 7410,
      "cavity": 7411,
      "released": 7412,
      "Sweet": 7413,
      "Earth": 7414,
      "aerobics": 7415,
      "diligent": 7416,
      "Summer": 7417,
      "intelligent": 7418,
      "flesh": 7419,
      "extroverted": 7420,
      "Hollywood": 7421,
      "Broadway": 7422,
      "Oops": 7423,
      "jewelry": 7424,
      "groceries": 7425,
      "Ethernet": 7426,
      "Jordan": 7427,
      "sophisticated": 7428,
      "stomacha": 7429,
      "05": 7430,
      "31": 7431,
      "850": 7432,
      "Bal": 7433,
      "Cut": 7434,
      "Clive": 7435,
      "Del": 7436,
      "Kim": 7437,
      "Money": 7438,
      "Ouch": 7439,
      "Pan": 7440,
      "Pri": 7441,
      "Pass": 7442,
      "Play": 7443,
      "Que": 7444,
      "Sign": 7445,
      "Small": 7446,
      "Tre": 7447,
      "greet": 7448,
      "galler": 7449,
      "pant": 7450,
      "rhy": 7451,
      "scent": 7452,
      "ump": 7453,
      "vital": 7454,
      "wings": 7455,
      "refill": 7456,
      "reconfirm": 7457,
      "tori": 7458,
      "oranges": 7459,
      "esy": 7460,
      "helle": 7461,
      "entered": 7462,
      "becomes": 7463,
      "forbidden": 7464,
      "assu": 7465,
      "liar": 7466,
      "liking": 7467,
      "dot": 7468,
      "outlet": 7469,
      "acqu": 7470,
      "lyn": 7471,
      "suffic": 7472,
      "female": 7473,
      "hopes": 7474,
      "ppuccino": 7475,
      "perks": 7476,
      "permitted": 7477,
      "workout": 7478,
      "convey": 7479,
      "quote": 7480,
      "ulty": 7481,
      "blew": 7482,
      "chew": 7483,
      "spin": 7484,
      "mba": 7485,
      "overcome": 7486,
      "twenti": 7487,
      "comments": 7488,
      "lotion": 7489,
      "sheer": 7490,
      "sheep": 7491,
      "rows": 7492,
      "Therefore": 7493,
      "mailed": 7494,
      "grant": 7495,
      "interrup": 7496,
      "margin": 7497,
      "rented": 7498,
      "homeless": 7499,
      "drag": 7500,
      "disgust": 7501,
      "licence": 7502,
      "atherine": 7503,
      "Except": 7504,
      "skip": 7505,
      "singsong": 7506,
      "heads": 7507,
      "headaches": 7508,
      "steel": 7509,
      "parent": 7510,
      "dynasty": 7511,
      "filling": 7512,
      "missions": 7513,
      "Move": 7514,
      "banker": 7515,
      "beings": 7516,
      "attached": 7517,
      "izes": 7518,
      "camcor": 7519,
      "latte": 7520,
      "parked": 7521,
      "genius": 7522,
      "painted": 7523,
      "Mona": 7524,
      "lane": 7525,
      "pursu": 7526,
      "receiver": 7527,
      "treating": 7528,
      "flour": 7529,
      "polish": 7530,
      "pinch": 7531,
      "medicines": 7532,
      "Jackson": 7533,
      "queue": 7534,
      "answering": 7535,
      "burnt": 7536,
      "burgl": 7537,
      "performances": 7538,
      "increasing": 7539,
      "Secur": 7540,
      "chocolates": 7541,
      "pressing": 7542,
      "16th": 7543,
      "Michelle": 7544,
      "bowling": 7545,
      "knowledgments": 7546,
      "Supp": 7547,
      "exhibitions": 7548,
      "deserved": 7549,
      "14th": 7550,
      "ethnic": 7551,
      "circle": 7552,
      "Norm": 7553,
      "bellboy": 7554,
      "bargaining": 7555,
      "originally": 7556,
      "motiv": 7557,
      "Personally": 7558,
      "status": 7559,
      "caffe": 7560,
      "conclus": 7561,
      "boots": 7562,
      "shifts": 7563,
      "napkins": 7564,
      "Williams": 7565,
      "Malia": 7566,
      "feedback": 7567,
      "Brazil": 7568,
      "Brazili": 7569,
      "frightened": 7570,
      "district": 7571,
      "athletes": 7572,
      "Langu": 7573,
      "pouring": 7574,
      "techniques": 7575,
      "seminar": 7576,
      "etime": 7577,
      "opard": 7578,
      "purchasing": 7579,
      "scrambled": 7580,
      "accurate": 7581,
      "bacon": 7582,
      "dictionary": 7583,
      "Diana": 7584,
      "leisure": 7585,
      "bouquet": 7586,
      "Irish": 7587,
      "Dalian": 7588,
      "stewardess": 7589,
      "Eliza": 7590,
      "Ladies": 7591,
      "galleries": 7592,
      "sufficient": 7593,
      "130": 7594,
      "260": 7595,
      "7th": 7596,
      "Agree": 7597,
      "Bud": 7598,
      "Bush": 7599,
      "Cel": 7600,
      "EF": 7601,
      "Hm": 7602,
      "MB": 7603,
      "Might": 7604,
      "MBA": 7605,
      "Pen": 7606,
      "Pars": 7607,
      "Ton": 7608,
      "Vi": 7609,
      "XY": 7610,
      "blast": 7611,
      "dup": 7612,
      "deduc": 7613,
      "fau": 7614,
      "hint": 7615,
      "hits": 7616,
      "jar": 7617,
      "lted": 7618,
      "ox": 7619,
      "oy": 7620,
      "pment": 7621,
      "rab": 7622,
      "rally": 7623,
      "rant": 7624,
      "slic": 7625,
      "task": 7626,
      "tha": 7627,
      "thai": 7628,
      "thony": 7629,
      "intake": 7630,
      "inexpensive": 7631,
      "infection": 7632,
      "reject": 7633,
      "repayment": 7634,
      "reporter": 7635,
      "reunion": 7636,
      "thedr": 7637,
      "lls": 7638,
      "healed": 7639,
      "stadium": 7640,
      "hack": 7641,
      "ensils": 7642,
      "associ": 7643,
      "soil": 7644,
      "chart": 7645,
      "utensils": 7646,
      "arer": 7647,
      "idi": 7648,
      "rop": 7649,
      "actor": 7650,
      "accent": 7651,
      "accusto": 7652,
      "cans": 7653,
      "teries": 7654,
      "amer": 7655,
      "pean": 7656,
      "tex": 7657,
      "ankle": 7658,
      "raising": 7659,
      "deck": 7660,
      "uncture": 7661,
      "conserve": 7662,
      "nomin": 7663,
      "needing": 7664,
      "illness": 7665,
      "essay": 7666,
      "resistant": 7667,
      "compact": 7668,
      "trot": 7669,
      "spit": 7670,
      "partners": 7671,
      "pray": 7672,
      "priced": 7673,
      "bulence": 7674,
      "owned": 7675,
      "precious": 7676,
      "prefers": 7677,
      "ously": 7678,
      "clam": 7679,
      "restric": 7680,
      "manner": 7681,
      "stopping": 7682,
      "payments": 7683,
      "saus": 7684,
      "merce": 7685,
      "blown": 7686,
      "hardcover": 7687,
      "anging": 7688,
      "planes": 7689,
      "Exchange": 7690,
      "ordering": 7691,
      "enjoys": 7692,
      "desert": 7693,
      "shaped": 7694,
      "roughly": 7695,
      "producing": 7696,
      "funeral": 7697,
      "version": 7698,
      "dying": 7699,
      "freezer": 7700,
      "content": 7701,
      "rides": 7702,
      "farming": 7703,
      "informative": 7704,
      "curb": 7705,
      "Looking": 7706,
      "interviewers": 7707,
      "pub": 7708,
      "object": 7709,
      "obtain": 7710,
      "solved": 7711,
      "subst": 7712,
      "freel": 7713,
      "cashme": 7714,
      "aire": 7715,
      "dealer": 7716,
      "crown": 7717,
      "popcorn": 7718,
      "transmission": 7719,
      "tourism": 7720,
      "confess": 7721,
      "factors": 7722,
      "identity": 7723,
      "bara": 7724,
      "holder": 7725,
      "acceptance": 7726,
      "Anthony": 7727,
      "salesman": 7728,
      "Dean": 7729,
      "bikin": 7730,
      "Saturdays": 7731,
      "sched": 7732,
      "pancakes": 7733,
      "virt": 7734,
      "metres": 7735,
      "suggested": 7736,
      "porters": 7737,
      "voc": 7738,
      "placing": 7739,
      "worthy": 7740,
      "worthwhile": 7741,
      "applications": 7742,
      "successfully": 7743,
      "improved": 7744,
      "technic": 7745,
      "grandma": 7746,
      "winner": 7747,
      "accu": 7748,
      "Comput": 7749,
      "bloody": 7750,
      "ahoo": 7751,
      "ugly": 7752,
      "turkey": 7753,
      "loaded": 7754,
      "industries": 7755,
      "messed": 7756,
      "pulling": 7757,
      "Human": 7758,
      "Euros": 7759,
      "memories": 7760,
      "instrument": 7761,
      "swing": 7762,
      "Administration": 7763,
      "Barbara": 7764,
      "Art": 7765,
      "decorated": 7766,
      "achievements": 7767,
      "encouraging": 7768,
      "demanding": 7769,
      "politan": 7770,
      "Kobe": 7771,
      "Buy": 7772,
      "experts": 7773,
      "Studying": 7774,
      "cousins": 7775,
      "contribution": 7776,
      "butterfly": 7777,
      "adopt": 7778,
      "Terrific": 7779,
      "sweaters": 7780,
      "electronics": 7781,
      "defense": 7782,
      "automobile": 7783,
      "bricks": 7784,
      "Francisco": 7785,
      "mutton": 7786,
      "CPR": 7787,
      "determine": 7788,
      "journalism": 7789,
      "Nanjing": 7790,
      "destroyed": 7791,
      "demonstr": 7792,
      "knees": 7793,
      "pulse": 7794,
      "slacks": 7795,
      "Engine": 7796,
      "handicapped": 7797,
      "chapter": 7798,
      "Sharon": 7799,
      "Taxi": 7800,
      "thunderstorms": 7801,
      "philosophy": 7802,
      "predictable": 7803,
      "pronunciation": 7804,
      "disease": 7805,
      "suburbs": 7806,
      "certified": 7807,
      "pamphlet": 7808,
      "Development": 7809,
      "lounge": 7810,
      "stomachache": 7811,
      "Queen": 7812,
      "Brazilian": 7813,
      "Agreement": 7814,
      "EFL": 7815,
      "Parsons": 7816,
      "XYZ": 7817,
      "duplic": 7818,
      "deducti": 7819,
      "faucet": 7820,
      "rabbit": 7821,
      "accustomed": 7822,
      "6th": 7823,
      "Bre": 7824,
      "Best": 7825,
      "Bark": 7826,
      "Bachelor": 7827,
      "Bridge": 7828,
      "Ce": 7829,
      "Cds": 7830,
      "Dark": 7831,
      "EQ": 7832,
      "Fu": 7833,
      "Gor": 7834,
      "Hans": 7835,
      "Hallow": 7836,
      "Name": 7837,
      "Osc": 7838,
      "Pas": 7839,
      "Pac": 7840,
      "Pho": 7841,
      "Pur": 7842,
      "Pod": 7843,
      "Ron": 7844,
      "Sony": 7845,
      "Test": 7846,
      "Water": 7847,
      "bis": 7848,
      "bble": 7849,
      "baked": 7850,
      "cke": 7851,
      "fus": 7852,
      "fting": 7853,
      "fying": 7854,
      "hong": 7855,
      "kong": 7856,
      "kespe": 7857,
      "liness": 7858,
      "oily": 7859,
      "olic": 7860,
      "rage": 7861,
      "rist": 7862,
      "tread": 7863,
      "vine": 7864,
      "vary": 7865,
      "valent": 7866,
      "waff": 7867,
      "wagon": 7868,
      "recall": 7869,
      "revol": 7870,
      "anmen": 7871,
      "anxious": 7872,
      "atmeal": 7873,
      "onion": 7874,
      "token": 7875,
      "orient": 7876,
      "iso": 7877,
      "vegg": 7878,
      "sem": 7879,
      "sections": 7880,
      "bee": 7881,
      "asha": 7882,
      "aside": 7883,
      "verse": 7884,
      "yourselves": 7885,
      "tili": 7886,
      "timing": 7887,
      "admitted": 7888,
      "amin": 7889,
      "agger": 7890,
      "agric": 7891,
      "expen": 7892,
      "excess": 7893,
      "exagger": 7894,
      "indication": 7895,
      "unnecessary": 7896,
      "unfurnished": 7897,
      "Doing": 7898,
      "convince": 7899,
      "needles": 7900,
      "ckily": 7901,
      "residence": 7902,
      "components": 7903,
      "Andrew": 7904,
      "newcomer": 7905,
      "bothered": 7906,
      "Isa": 7907,
      "actress": 7908,
      "restroom": 7909,
      "typed": 7910,
      "episo": 7911,
      "cipl": 7912,
      "manual": 7913,
      "Letter": 7914,
      "aves": 7915,
      "sailing": 7916,
      "wondered": 7917,
      "uded": 7918,
      "caring": 7919,
      "bloom": 7920,
      "wrink": 7921,
      "torney": 7922,
      "nerves": 7923,
      "discipl": 7924,
      "launch": 7925,
      "cords": 7926,
      "Instead": 7927,
      "dolls": 7928,
      "ruined": 7929,
      "Comm": 7930,
      "fertili": 7931,
      "imate": 7932,
      "hottest": 7933,
      "steep": 7934,
      "importantly": 7935,
      "Forbidden": 7936,
      "cession": 7937,
      "ulture": 7938,
      "movements": 7939,
      "wore": 7940,
      "cuts": 7941,
      "smoked": 7942,
      "begun": 7943,
      "weatherman": 7944,
      "criminals": 7945,
      "consists": 7946,
      "lantern": 7947,
      "123": 7948,
      "Temple": 7949,
      "majoring": 7950,
      "eighteen": 7951,
      "grap": 7952,
      "closely": 7953,
      "2002": 7954,
      "petrol": 7955,
      "necessarily": 7956,
      "damages": 7957,
      "balanced": 7958,
      "burst": 7959,
      "stockholders": 7960,
      "tificial": 7961,
      "sights": 7962,
      "shipped": 7963,
      "nonsense": 7964,
      "investing": 7965,
      "Loans": 7966,
      "starter": 7967,
      "Luckily": 7968,
      "fundrais": 7969,
      "jumping": 7970,
      "radi": 7971,
      "instructor": 7972,
      "Suzhou": 7973,
      "pedal": 7974,
      "protection": 7975,
      "promising": 7976,
      "communicating": 7977,
      "consump": 7978,
      "Airport": 7979,
      "emphas": 7980,
      "crossing": 7981,
      "palace": 7982,
      "repairs": 7983,
      "Clint": 7984,
      "cruel": 7985,
      "Feel": 7986,
      "vanilla": 7987,
      "printing": 7988,
      "inches": 7989,
      "Secondly": 7990,
      "browse": 7991,
      "Reser": 7992,
      "Sixty": 7993,
      "dormi": 7994,
      "procedures": 7995,
      "portions": 7996,
      "historic": 7997,
      "psychology": 7998,
      "Jean": 7999,
      "captain": 8000,
      "landscape": 8001,
      "equipped": 8002,
      "FOB": 8003,
      "chinese": 8004,
      "Child": 8005,
      "Nathan": 8006,
      "Simon": 8007,
      "mushrooms": 8008,
      "puzzles": 8009,
      "delighted": 8010,
      "construction": 8011,
      "Shakespe": 8012,
      "threatening": 8013,
      "eligi": 8014,
      "Berlin": 8015,
      "ctives": 8016,
      "dreadful": 8017,
      "initiative": 8018,
      "Return": 8019,
      "accommodation": 8020,
      "blossoms": 8021,
      "Catholic": 8022,
      "reschedule": 8023,
      "situations": 8024,
      "rhyth": 8025,
      "Normally": 8026,
      "caffeine": 8027,
      "Elizabeth": 8028,
      "Halloween": 8029,
      "Oscars": 8030,
      "Pacific": 8031,
      "treadmill": 8032,
      "expense": 8033,
      "Shakespeare": 8034,
      "41": 8035,
      "43": 8036,
      "AP": 8037,
      "Adam": 8038,
      "ASA": 8039,
      "Bon": 8040,
      "Bay": 8041,
      "CA": 8042,
      "CR": 8043,
      "Cu": 8044,
      "CLA": 8045,
      "ET": 8046,
      "Employment": 8047,
      "Fed": 8048,
      "Fall": 8049,
      "Fix": 8050,
      "Greg": 8051,
      "Horn": 8052,
      "La": 8053,
      "Mother": 8054,
      "Matt": 8055,
      "Ox": 8056,
      "Pu": 8057,
      "Pare": 8058,
      "Pls": 8059,
      "Rather": 8060,
      "Sci": 8061,
      "Tele": 8062,
      "Terry": 8063,
      "UFO": 8064,
      "UCLA": 8065,
      "Ver": 8066,
      "Vis": 8067,
      "Vic": 8068,
      "Woods": 8069,
      "Yale": 8070,
      "Zhu": 8071,
      "eval": 8072,
      "fake": 8073,
      "goo": 8074,
      "guts": 8075,
      "hiding": 8076,
      "ka": 8077,
      "kward": 8078,
      "kok": 8079,
      "lung": 8080,
      "native": 8081,
      "oak": 8082,
      "oatmeal": 8083,
      "pint": 8084,
      "phew": 8085,
      "rat": 8086,
      "rac": 8087,
      "sman": 8088,
      "satur": 8089,
      "tent": 8090,
      "vial": 8091,
      "vili": 8092,
      "thie": 8093,
      "ounts": 8094,
      "insu": 8095,
      "inju": 8096,
      "renov": 8097,
      "thent": 8098,
      "thetic": 8099,
      "errand": 8100,
      "merely": 8101,
      "itious": 8102,
      "semb": 8103,
      "stiff": 8104,
      "hah": 8105,
      "hairsty": 8106,
      "asure": 8107,
      "socks": 8108,
      "socket": 8109,
      "lig": 8110,
      "chub": 8111,
      "chron": 8112,
      "domin": 8113,
      "otic": 8114,
      "rivers": 8115,
      "abase": 8116,
      "nephew": 8117,
      "acup": 8118,
      "terol": 8119,
      "amounts": 8120,
      "shred": 8121,
      "peas": 8122,
      "peppers": 8123,
      "notify": 8124,
      "Thou": 8125,
      "hoped": 8126,
      "unbear": 8127,
      "updated": 8128,
      "concre": 8129,
      "consign": 8130,
      "conferences": 8131,
      "nover": 8132,
      "needle": 8133,
      "ainted": 8134,
      "elbow": 8135,
      "comprehen": 8136,
      "itecture": 8137,
      "jored": 8138,
      "spices": 8139,
      "spaces": 8140,
      "Soci": 8141,
      "bob": 8142,
      "foli": 8143,
      "silent": 8144,
      "civili": 8145,
      "assess": 8146,
      "counts": 8147,
      "gues": 8148,
      "cappuccino": 8149,
      "majored": 8150,
      "brit": 8151,
      "Chicken": 8152,
      "gracious": 8153,
      "meets": 8154,
      "merous": 8155,
      "cloths": 8156,
      "blouses": 8157,
      "dime": 8158,
      "interior": 8159,
      "beforehand": 8160,
      "renting": 8161,
      "airsick": 8162,
      "impol": 8163,
      "Vegas": 8164,
      "disadvantages": 8165,
      "yearly": 8166,
      "cares": 8167,
      "tonic": 8168,
      "lighter": 8169,
      "trivial": 8170,
      "shopped": 8171,
      "Cola": 8172,
      "handy": 8173,
      "hotpot": 8174,
      "supplier": 8175,
      "lesterol": 8176,
      "Exhibit": 8177,
      "lively": 8178,
      "driven": 8179,
      "sings": 8180,
      "filed": 8181,
      "adding": 8182,
      "addiction": 8183,
      "Anyhow": 8184,
      "cholesterol": 8185,
      "pension": 8186,
      "runner": 8187,
      "broc": 8188,
      "authent": 8189,
      "sends": 8190,
      "muscle": 8191,
      "Stand": 8192,
      "Stone": 8193,
      "poses": 8194,
      "20s": 8195,
      "pupp": 8196,
      "thirties": 8197,
      "prime": 8198,
      "prizes": 8199,
      "freck": 8200,
      "vacancies": 8201,
      "ffy": 8202,
      "pond": 8203,
      "faces": 8204,
      "awkward": 8205,
      "detached": 8206,
      "olk": 8207,
      "programming": 8208,
      "tested": 8209,
      "profits": 8210,
      "Mei": 8211,
      "biking": 8212,
      "listened": 8213,
      "majority": 8214,
      "Rock": 8215,
      "dishwasher": 8216,
      "teenagers": 8217,
      "architecture": 8218,
      "instant": 8219,
      "publishing": 8220,
      "refused": 8221,
      "Tracy": 8222,
      "designers": 8223,
      "ification": 8224,
      "varies": 8225,
      "horses": 8226,
      "publication": 8227,
      "lenses": 8228,
      "desks": 8229,
      "flyer": 8230,
      "blogging": 8231,
      "grandpa": 8232,
      "grandchildren": 8233,
      "competitors": 8234,
      "operating": 8235,
      "Marry": 8236,
      "Marcia": 8237,
      "occur": 8238,
      "sighted": 8239,
      "continental": 8240,
      "sweetie": 8241,
      "seasons": 8242,
      "turbulence": 8243,
      "turnover": 8244,
      "invested": 8245,
      "Cheers": 8246,
      "distin": 8247,
      "approve": 8248,
      "Word": 8249,
      "warn": 8250,
      "starters": 8251,
      "snowing": 8252,
      "Danny": 8253,
      "squee": 8254,
      "throws": 8255,
      "cube": 8256,
      "routes": 8257,
      "fares": 8258,
      "funda": 8259,
      "Banking": 8260,
      "inspect": 8261,
      "scenic": 8262,
      "Correct": 8263,
      "offici": 8264,
      "instruction": 8265,
      "marriages": 8266,
      "wrapping": 8267,
      "decline": 8268,
      "declared": 8269,
      "expressions": 8270,
      "pushing": 8271,
      "Macy": 8272,
      "graphic": 8273,
      "Services": 8274,
      "Arm": 8275,
      "kicking": 8276,
      "tutor": 8277,
      "limits": 8278,
      "palm": 8279,
      "repairing": 8280,
      "tornadoes": 8281,
      "separately": 8282,
      "federal": 8283,
      "receptionist": 8284,
      "statue": 8285,
      "titles": 8286,
      "investors": 8287,
      "subscribe": 8288,
      "dumped": 8289,
      "database": 8290,
      "failure": 8291,
      "butterflies": 8292,
      "VIP": 8293,
      "allergy": 8294,
      "Resour": 8295,
      "catalog": 8296,
      "risky": 8297,
      "cheerful": 8298,
      "resource": 8299,
      "tomatoes": 8300,
      "lunar": 8301,
      "Sandy": 8302,
      "conclude": 8303,
      "cancellation": 8304,
      "www": 8305,
      "biography": 8306,
      "Economy": 8307,
      "breasts": 8308,
      "establishment": 8309,
      "Jessica": 8310,
      "investigation": 8311,
      "Joanne": 8312,
      "landscapes": 8313,
      "demonstrate": 8314,
      "Fifty": 8315,
      "envelopes": 8316,
      "Awesome": 8317,
      "Bangkok": 8318,
      "inventory": 8319,
      "geography": 8320,
      "scientist": 8321,
      "Import": 8322,
      "chemicals": 8323,
      "Beautif": 8324,
      "knife": 8325,
      "albums": 8326,
      "bullet": 8327,
      "interpreter": 8328,
      "Economics": 8329,
      "tidy": 8330,
      "remote": 8331,
      "controls": 8332,
      "conflict": 8333,
      "cuisine": 8334,
      "Vargas": 8335,
      "ketchup": 8336,
      "phoned": 8337,
      "Egypt": 8338,
      "foul": 8339,
      "rapidly": 8340,
      "fetch": 8341,
      "itinerary": 8342,
      "arbitration": 8343,
      "decrease": 8344,
      "amendment": 8345,
      "dramat": 8346,
      "violin": 8347,
      "spectacular": 8348,
      "Malaysia": 8349,
      "panty": 8350,
      "hackers": 8351,
      "bikini": 8352,
      "Oxford": 8353,
      "Parents": 8354,
      "evaluation": 8355,
      "thieves": 8356,
      "errands": 8357,
      "concrete": 8358,
      "impolite": 8359,
      "Exhibition": 8360,
      "authentic": 8361,
      "350": 8362,
      "Ass": 8363,
      "Award": 8364,
      "Cy": 8365,
      "Cou": 8366,
      "Dy": 8367,
      "Darling": 8368,
      "Fit": 8369,
      "Fort": 8370,
      "Gam": 8371,
      "Han": 8372,
      "Hah": 8373,
      "Haunt": 8374,
      "Jing": 8375,
      "Lou": 8376,
      "Lor": 8377,
      "Link": 8378,
      "Min": 8379,
      "Ot": 8380,
      "Old": 8381,
      "PR": 8382,
      "Ph": 8383,
      "Psy": 8384,
      "Rese": 8385,
      "Set": 8386,
      "Tor": 8387,
      "Woo": 8388,
      "Yo": 8389,
      "Yet": 8390,
      "awhile": 8391,
      "awards": 8392,
      "bing": 8393,
      "boun": 8394,
      "blocked": 8395,
      "cise": 8396,
      "ethe": 8397,
      "evalu": 8398,
      "fal": 8399,
      "gle": 8400,
      "lam": 8401,
      "nif": 8402,
      "pile": 8403,
      "qi": 8404,
      "sate": 8405,
      "tune": 8406,
      "wh": 8407,
      "wang": 8408,
      "wages": 8409,
      "yage": 8410,
      "yahoo": 8411,
      "zo": 8412,
      "zard": 8413,
      "inary": 8414,
      "reconsider": 8415,
      "rebound": 8416,
      "theme": 8417,
      "yout": 8418,
      "youth": 8419,
      "atown": 8420,
      "attorney": 8421,
      "onions": 8422,
      "toler": 8423,
      "llite": 8424,
      "vend": 8425,
      "stun": 8426,
      "artificial": 8427,
      "ench": 8428,
      "icians": 8429,
      "wered": 8430,
      "ution": 8431,
      "idio": 8432,
      "outline": 8433,
      "tiring": 8434,
      "absor": 8435,
      "gomer": 8436,
      "irrit": 8437,
      "nowhere": 8438,
      "sus": 8439,
      "shrink": 8440,
      "peak": 8441,
      "mph": 8442,
      "homer": 8443,
      "una": 8444,
      "upgrade": 8445,
      "mentary": 8446,
      "mulate": 8447,
      "hilar": 8448,
      "affection": 8449,
      "compart": 8450,
      "tram": 8451,
      "newest": 8452,
      "cheat": 8453,
      "cheesy": 8454,
      "bodies": 8455,
      "ishment": 8456,
      "buried": 8457,
      "caut": 8458,
      "backs": 8459,
      "grounds": 8460,
      "kets": 8461,
      "finds": 8462,
      "buys": 8463,
      "closet": 8464,
      "margar": 8465,
      "numerous": 8466,
      "answered": 8467,
      "drank": 8468,
      "angle": 8469,
      "layout": 8470,
      "Insurance": 8471,
      "showers": 8472,
      "underwear": 8473,
      "Bell": 8474,
      "Beam": 8475,
      "shock": 8476,
      "ferage": 8477,
      "earning": 8478,
      "Export": 8479,
      "viewing": 8480,
      "babies": 8481,
      "101": 8482,
      "produces": 8483,
      "portable": 8484,
      "freeway": 8485,
      "Ford": 8486,
      "curfew": 8487,
      "Start": 8488,
      "201": 8489,
      "mailing": 8490,
      "severance": 8491,
      "Associ": 8492,
      "bosses": 8493,
      "terrified": 8494,
      "filthy": 8495,
      "grams": 8496,
      "translation": 8497,
      "barrier": 8498,
      "stub": 8499,
      "ringing": 8500,
      "drawn": 8501,
      "facts": 8502,
      "reporting": 8503,
      "Mean": 8504,
      "Firstly": 8505,
      "extended": 8506,
      "poster": 8507,
      "boxing": 8508,
      "pendant": 8509,
      "receiving": 8510,
      "practise": 8511,
      "treatments": 8512,
      "drawing": 8513,
      "figuring": 8514,
      "steady": 8515,
      "voyage": 8516,
      "transferring": 8517,
      "leaded": 8518,
      "Front": 8519,
      "ificent": 8520,
      "horos": 8521,
      "heavily": 8522,
      "slippers": 8523,
      "gained": 8524,
      "fluent": 8525,
      "increases": 8526,
      "mistry": 8527,
      "lectures": 8528,
      "apology": 8529,
      "reminded": 8530,
      "fireworks": 8531,
      "firecrackers": 8532,
      "niest": 8533,
      "supporting": 8534,
      "increased": 8535,
      "calories": 8536,
      "Hua": 8537,
      "Mao": 8538,
      "gardening": 8539,
      "urgently": 8540,
      "struck": 8541,
      "Paula": 8542,
      "loudly": 8543,
      "electrician": 8544,
      "criter": 8545,
      "tube": 8546,
      "warehouse": 8547,
      "traveller": 8548,
      "volume": 8549,
      "Westerners": 8550,
      "Students": 8551,
      "ivity": 8552,
      "tricky": 8553,
      "meaningful": 8554,
      "brows": 8555,
      "lifetime": 8556,
      "authority": 8557,
      "briefcase": 8558,
      "connecting": 8559,
      "African": 8560,
      "mutual": 8561,
      "complimentary": 8562,
      "mileage": 8563,
      "Counter": 8564,
      "conductor": 8565,
      "Dollar": 8566,
      "equivalent": 8567,
      "objective": 8568,
      "technique": 8569,
      "envelope": 8570,
      "diplo": 8571,
      "scientists": 8572,
      "murder": 8573,
      "benefici": 8574,
      "beneficial": 8575,
      "Montgomer": 8576,
      "tattoos": 8577,
      "Capital": 8578,
      "Desk": 8579,
      "implement": 8580,
      "magnificent": 8581,
      "galaxies": 8582,
      "spilled": 8583,
      "assume": 8584,
      "veggies": 8585,
      "Reserv": 8586,
      "eligible": 8587,
      "Fixed": 8588,
      "Gambling": 8589,
      "Haunted": 8590,
      "Research": 8591,
      "satellite": 8592,
      "homeroom": 8593,
      "Montgomery": 8594,
      "4000": 8595,
      "69": 8596,
      "76": 8597,
      "Bing": 8598,
      "Bot": 8599,
      "Bureau": 8600,
      "DJ": 8601,
      "Double": 8602,
      "Eif": 8603,
      "Emb": 8604,
      "Fre": 8605,
      "Far": 8606,
      "Food": 8607,
      "Full": 8608,
      "Gover": 8609,
      "Hang": 8610,
      "Jake": 8611,
      "Jef": 8612,
      "Kent": 8613,
      "Lap": 8614,
      "Port": 8615,
      "Qing": 8616,
      "Rice": 8617,
      "Run": 8618,
      "Rachel": 8619,
      "Send": 8620,
      "Sil": 8621,
      "Sher": 8622,
      "Simp": 8623,
      "Sleep": 8624,
      "Store": 8625,
      "Tour": 8626,
      "VCR": 8627,
      "Wy": 8628,
      "Www": 8629,
      "bert": 8630,
      "bait": 8631,
      "culations": 8632,
      "dres": 8633,
      "em": 8634,
      "ease": 8635,
      "gally": 8636,
      "ggl": 8637,
      "iers": 8638,
      "ko": 8639,
      "lind": 8640,
      "nment": 8641,
      "nish": 8642,
      "ology": 8643,
      "phe": 8644,
      "rus": 8645,
      "rack": 8646,
      "rics": 8647,
      "sang": 8648,
      "savor": 8649,
      "scold": 8650,
      "scream": 8651,
      "splendid": 8652,
      "tling": 8653,
      "uine": 8654,
      "vast": 8655,
      "zip": 8656,
      "thumb": 8657,
      "ouched": 8658,
      "inno": 8659,
      "inher": 8660,
      "inations": 8661,
      "relu": 8662,
      "rets": 8663,
      "removed": 8664,
      "resolve": 8665,
      "onent": 8666,
      "toy": 8667,
      "tops": 8668,
      "erce": 8669,
      "error": 8670,
      "oring": 8671,
      "orchest": 8672,
      "itary": 8673,
      "itations": 8674,
      "heater": 8675,
      "hetti": 8676,
      "vet": 8677,
      "stile": 8678,
      "stream": 8679,
      "aro": 8680,
      "beli": 8681,
      "hates": 8682,
      "ician": 8683,
      "ooke": 8684,
      "assum": 8685,
      "ala": 8686,
      "alert": 8687,
      "edit": 8688,
      "editing": 8689,
      "lied": 8690,
      "limo": 8691,
      "utility": 8692,
      "cola": 8693,
      "timer": 8694,
      "accom": 8695,
      "accel": 8696,
      "acknowledgments": 8697,
      "ades": 8698,
      "gover": 8699,
      "suff": 8700,
      "sucks": 8701,
      "modate": 8702,
      "shield": 8703,
      "ceiling": 8704,
      "aggress": 8705,
      "agged": 8706,
      "aghetti": 8707,
      "user": 8708,
      "usive": 8709,
      "users": 8710,
      "tears": 8711,
      "indic": 8712,
      "raft": 8713,
      "deaf": 8714,
      "unks": 8715,
      "unlimited": 8716,
      "update": 8717,
      "pers": 8718,
      "ulars": 8719,
      "ctant": 8720,
      "pover": 8721,
      "ckham": 8722,
      "ila": 8723,
      "compromise": 8724,
      "itement": 8725,
      "offended": 8726,
      "Soda": 8727,
      "prot": 8728,
      "bugs": 8729,
      "pretti": 8730,
      "cloud": 8731,
      "guid": 8732,
      "spection": 8733,
      "cape": 8734,
      "greater": 8735,
      "kindly": 8736,
      "grat": 8737,
      "gray": 8738,
      "uding": 8739,
      "xture": 8740,
      "osed": 8741,
      "penny": 8742,
      "carto": 8743,
      "blon": 8744,
      "division": 8745,
      "nicely": 8746,
      "homes": 8747,
      "Recent": 8748,
      "Reading": 8749,
      "drought": 8750,
      "Inspection": 8751,
      "Note": 8752,
      "toner": 8753,
      "tones": 8754,
      "elsewhere": 8755,
      "turnstile": 8756,
      "rumba": 8757,
      "Color": 8758,
      "handled": 8759,
      "imal": 8760,
      "earned": 8761,
      "thoughts": 8762,
      "mature": 8763,
      "desc": 8764,
      "crew": 8765,
      "decade": 8766,
      "Anyone": 8767,
      "productive": 8768,
      "invitations": 8769,
      "regrets": 8770,
      "specialize": 8771,
      "chores": 8772,
      "cylind": 8773,
      "informal": 8774,
      "bedside": 8775,
      "realistic": 8776,
      "jelly": 8777,
      "waterfall": 8778,
      "mails": 8779,
      "slender": 8780,
      "picky": 8781,
      "suitcases": 8782,
      "freak": 8783,
      "shorten": 8784,
      "doctors": 8785,
      "Gosh": 8786,
      "crash": 8787,
      "passbook": 8788,
      "parlor": 8789,
      "genuine": 8790,
      "wns": 8791,
      "excitement": 8792,
      "Short": 8793,
      "beginner": 8794,
      "facing": 8795,
      "sweep": 8796,
      "recipe": 8797,
      "honored": 8798,
      "gradually": 8799,
      "entering": 8800,
      "salesperson": 8801,
      "allowing": 8802,
      "basics": 8803,
      "posture": 8804,
      "postage": 8805,
      "catches": 8806,
      "purchased": 8807,
      "purposes": 8808,
      "receives": 8809,
      "teenager": 8810,
      "phob": 8811,
      "drawer": 8812,
      "floods": 8813,
      "scal": 8814,
      "photograp": 8815,
      "berty": 8816,
      "strongly": 8817,
      "recorded": 8818,
      "Peckham": 8819,
      "performed": 8820,
      "sticky": 8821,
      "burg": 8822,
      "Home": 8823,
      "satisfy": 8824,
      "stockings": 8825,
      "operas": 8826,
      "patent": 8827,
      "Gramer": 8828,
      "Wangfu": 8829,
      "Billy": 8830,
      "candle": 8831,
      "Orange": 8832,
      "bonds": 8833,
      "darker": 8834,
      "cultures": 8835,
      "calculations": 8836,
      "appears": 8837,
      "cigars": 8838,
      "standards": 8839,
      "settlement": 8840,
      "gardens": 8841,
      "quette": 8842,
      "firmly": 8843,
      "Northern": 8844,
      "carton": 8845,
      "kicks": 8846,
      "hammer": 8847,
      "robber": 8848,
      "achievement": 8849,
      "widely": 8850,
      "organizational": 8851,
      "typist": 8852,
      "crucial": 8853,
      "requested": 8854,
      "Few": 8855,
      "roasted": 8856,
      "accessories": 8857,
      "statistics": 8858,
      "installments": 8859,
      "Frankly": 8860,
      "fools": 8861,
      "annoy": 8862,
      "Certificates": 8863,
      "lifting": 8864,
      "pumping": 8865,
      "McDonald": 8866,
      "broadband": 8867,
      "MasterCard": 8868,
      "minority": 8869,
      "insisted": 8870,
      "prediction": 8871,
      "shades": 8872,
      "comparing": 8873,
      "arranging": 8874,
      "27th": 8875,
      "hamburgers": 8876,
      "Pete": 8877,
      "gentleman": 8878,
      "pitcher": 8879,
      "functional": 8880,
      "nutritious": 8881,
      "towers": 8882,
      "moisturize": 8883,
      "Commod": 8884,
      "citrus": 8885,
      "deducted": 8886,
      "Tavern": 8887,
      "existing": 8888,
      "Dollars": 8889,
      "catalogues": 8890,
      "Miller": 8891,
      "gathering": 8892,
      "sacrific": 8893,
      "seminars": 8894,
      "knee": 8895,
      "adorable": 8896,
      "priority": 8897,
      "Consumer": 8898,
      "Consult": 8899,
      "thriller": 8900,
      "random": 8901,
      "executive": 8902,
      "cubicle": 8903,
      "professionals": 8904,
      "Robinson": 8905,
      "aspects": 8906,
      "victims": 8907,
      "Texas": 8908,
      "aborate": 8909,
      "consumers": 8910,
      "clouds": 8911,
      "curious": 8912,
      "keepers": 8913,
      "infected": 8914,
      "cosmopolitan": 8915,
      "pharmacy": 8916,
      "distribut": 8917,
      "Terminator": 8918,
      "Digital": 8919,
      "emotional": 8920,
      "hidden": 8921,
      "suspic": 8922,
      "disgusting": 8923,
      "conclusion": 8924,
      "Tonight": 8925,
      "cashmere": 8926,
      "Purit": 8927,
      "waffles": 8928,
      "orientation": 8929,
      "episode": 8930,
      "consumption": 8931,
      "Federal": 8932,
      "chubby": 8933,
      "acupuncture": 8934,
      "unbearable": 8935,
      "consignment": 8936,
      "freckles": 8937,
      "false": 8938,
      "criteria": 8939,
      "Bingo": 8940,
      "Eiffel": 8941,
      "Government": 8942,
      "Wyatt": 8943,
      "dresser": 8944,
      "screaming": 8945,
      "innocent": 8946,
      "reluctant": 8947,
      "orchestra": 8948,
      "assuming": 8949,
      "accommodate": 8950,
      "acceler": 8951,
      "aggressive": 8952,
      "Recently": 8953,
      "Colorado": 8954,
      "Gramercy": 8955,
      "Wangfujing": 8956,
      "8th": 8957,
      "82nd": 8958,
      "Aright": 8959,
      "Amand": 8960,
      "Band": 8961,
      "Bel": 8962,
      "Cli": 8963,
      "Cart": 8964,
      "Catch": 8965,
      "Cooper": 8966,
      "Catherine": 8967,
      "DA": 8968,
      "Den": 8969,
      "Drop": 8970,
      "Es": 8971,
      "Ever": 8972,
      "Ecu": 8973,
      "GPA": 8974,
      "Hou": 8975,
      "Hand": 8976,
      "Hank": 8977,
      "Ja": 8978,
      "Mand": 8979,
      "Making": 8980,
      "Nic": 8981,
      "Slow": 8982,
      "Silly": 8983,
      "Swit": 8984,
      "Vick": 8985,
      "Xi": 8986,
      "bake": 8987,
      "ctory": 8988,
      "dha": 8989,
      "daddy": 8990,
      "eves": 8991,
      "evil": 8992,
      "gars": 8993,
      "gloves": 8994,
      "iPod": 8995,
      "kite": 8996,
      "lers": 8997,
      "lish": 8998,
      "lakes": 8999,
      "mou": 9000,
      "mbed": 9001,
      "pra": 9002,
      "pest": 9003,
      "pies": 9004,
      "pushed": 9005,
      "rust": 9006,
      "rang": 9007,
      "root": 9008,
      "rising": 9009,
      "scan": 9010,
      "tended": 9011,
      "titude": 9012,
      "ume": 9013,
      "unt": 9014,
      "uals": 9015,
      "xiang": 9016,
      "zart": 9017,
      "ini": 9018,
      "ino": 9019,
      "insert": 9020,
      "react": 9021,
      "repay": 9022,
      "recru": 9023,
      "recycle": 9024,
      "revenue": 9025,
      "anie": 9026,
      "anny": 9027,
      "ancial": 9028,
      "inge": 9029,
      "ingu": 9030,
      "veal": 9031,
      "seal": 9032,
      "stink": 9033,
      "sters": 9034,
      "leopard": 9035,
      "beating": 9036,
      "hats": 9037,
      "forks": 9038,
      "som": 9039,
      "welf": 9040,
      "lion": 9041,
      "ches": 9042,
      "eteen": 9043,
      "cob": 9044,
      "rig": 9045,
      "absolute": 9046,
      "accompany": 9047,
      "cann": 9048,
      "canned": 9049,
      "adminis": 9050,
      "irable": 9051,
      "Wear": 9052,
      "Youth": 9053,
      "ami": 9054,
      "amic": 9055,
      "lod": 9056,
      "temple": 9057,
      "hose": 9058,
      "seek": 9059,
      "ppery": 9060,
      "entre": 9061,
      "perseverance": 9062,
      "workman": 9063,
      "inee": 9064,
      "ula": 9065,
      "ulate": 9066,
      "ulpt": 9067,
      "poet": 9068,
      "poss": 9069,
      "elf": 9070,
      "reshed": 9071,
      "trative": 9072,
      "spite": 9073,
      "spons": 9074,
      "boating": 9075,
      "Island": 9076,
      "bury": 9077,
      "folder": 9078,
      "sized": 9079,
      "tenth": 9080,
      "bruary": 9081,
      "sauna": 9082,
      "kindness": 9083,
      "sitter": 9084,
      "dumb": 9085,
      "finest": 9086,
      "Chinatown": 9087,
      "discover": 9088,
      "discharged": 9089,
      "disappear": 9090,
      "discourage": 9091,
      "studio": 9092,
      "lightweight": 9093,
      "Beeth": 9094,
      "shocked": 9095,
      "smiling": 9096,
      "Excel": 9097,
      "skies": 9098,
      "dried": 9099,
      "periods": 9100,
      "wonderfully": 9101,
      "imported": 9102,
      "1050": 9103,
      "producer": 9104,
      "funniest": 9105,
      "sentences": 9106,
      "specialties": 9107,
      "strangers": 9108,
      "Mozart": 9109,
      "tawa": 9110,
      "expectation": 9111,
      "examine": 9112,
      "507": 9113,
      "presidential": 9114,
      "Unless": 9115,
      "crab": 9116,
      "cram": 9117,
      "presentations": 9118,
      "reasonably": 9119,
      "Atl": 9120,
      "listing": 9121,
      "consist": 9122,
      "sweating": 9123,
      "sweethe": 9124,
      "stylish": 9125,
      "lunchtime": 9126,
      "Perrier": 9127,
      "teddy": 9128,
      "bases": 9129,
      "rels": 9130,
      "1234": 9131,
      "insight": 9132,
      "paste": 9133,
      "sunning": 9134,
      "sunscreen": 9135,
      "Roy": 9136,
      "Roll": 9137,
      "ators": 9138,
      "follows": 9139,
      "graduates": 9140,
      "engagement": 9141,
      "expired": 9142,
      "2008": 9143,
      "dropping": 9144,
      "scoo": 9145,
      "sculpt": 9146,
      "refreshed": 9147,
      "faulty": 9148,
      "superb": 9149,
      "Steph": 9150,
      "satin": 9151,
      "bathtub": 9152,
      "quietly": 9153,
      "directed": 9154,
      "sticking": 9155,
      "competence": 9156,
      "flush": 9157,
      "patients": 9158,
      "Martha": 9159,
      "fatter": 9160,
      "withdrawing": 9161,
      "160": 9162,
      "processor": 9163,
      "complained": 9164,
      "Fox": 9165,
      "scored": 9166,
      "tivity": 9167,
      "celebrating": 9168,
      "tieth": 9169,
      "woods": 9170,
      "snakes": 9171,
      "Jennif": 9172,
      "avoided": 9173,
      "Tibet": 9174,
      "poorly": 9175,
      "tender": 9176,
      "moderate": 9177,
      "graphs": 9178,
      "graphics": 9179,
      "zerland": 9180,
      "17th": 9181,
      "textbook": 9182,
      "omelet": 9183,
      "toothbrush": 9184,
      "Financial": 9185,
      "limous": 9186,
      "golden": 9187,
      "Click": 9188,
      "encouraged": 9189,
      "embassy": 9190,
      "separated": 9191,
      "Femi": 9192,
      "February": 9193,
      "tariff": 9194,
      "Study": 9195,
      "nursing": 9196,
      "compliments": 9197,
      "remains": 9198,
      "sympathy": 9199,
      "pilferage": 9200,
      "XXXXXX": 9201,
      "XXXXXXXXXX": 9202,
      "occupied": 9203,
      "Chanel": 9204,
      "nineteen": 9205,
      "hunter": 9206,
      "belongings": 9207,
      "Mountains": 9208,
      "bushes": 9209,
      "humorous": 9210,
      "refreshing": 9211,
      "gallon": 9212,
      "forests": 9213,
      "athletics": 9214,
      "Joanna": 9215,
      "objectives": 9216,
      "Fifth": 9217,
      "relieved": 9218,
      "troubles": 9219,
      "Marketing": 9220,
      "etiquette": 9221,
      "fragrance": 9222,
      "cowork": 9223,
      "commute": 9224,
      "commuting": 9225,
      "Beauty": 9226,
      "Karl": 9227,
      "knives": 9228,
      "punishment": 9229,
      "abytes": 9230,
      "resignation": 9231,
      "Montreal": 9232,
      "Teachers": 9233,
      "promptly": 9234,
      "Disneyland": 9235,
      "Friendship": 9236,
      "Party": 9237,
      "symbol": 9238,
      "bananas": 9239,
      "citizens": 9240,
      "Plenty": 9241,
      "anoid": 9242,
      "leftovers": 9243,
      "coincidence": 9244,
      "camcorder": 9245,
      "Buddha": 9246,
      "substanti": 9247,
      "wrinkles": 9248,
      "Clinton": 9249,
      "dormitory": 9250,
      "Beautiful": 9251,
      "Assistant": 9252,
      "Ottawa": 9253,
      "Psycho": 9254,
      "compartment": 9255,
      "cautious": 9256,
      "Meanwhile": 9257,
      "Embassy": 9258,
      "Amanda": 9259,
      "Ecuador": 9260,
      "Houston": 9261,
      "Switzerland": 9262,
      "xiangqi": 9263,
      "welfare": 9264,
      "administrative": 9265,
      "possess": 9266,
      "Beethoven": 9267,
      "Jennifer": 9268,
      "345": 9269,
      "44": 9270,
      "5000": 9271,
      "BB": 9272,
      "Bull": 9273,
      "Based": 9274,
      "Cam": 9275,
      "Cain": 9276,
      "Cars": 9277,
      "Dou": 9278,
      "Det": 9279,
      "Dong": 9280,
      "Dance": 9281,
      "Dude": 9282,
      "EE": 9283,
      "Ell": 9284,
      "Emp": 9285,
      "Egg": 9286,
      "Eating": 9287,
      "Ella": 9288,
      "Flo": 9289,
      "Free": 9290,
      "Fool": 9291,
      "Foot": 9292,
      "Folk": 9293,
      "Gal": 9294,
      "Hy": 9295,
      "Harr": 9296,
      "IM": 9297,
      "Jes": 9298,
      "Jose": 9299,
      "Kris": 9300,
      "Kids": 9301,
      "Kathy": 9302,
      "Lt": 9303,
      "Les": 9304,
      "Line": 9305,
      "Lim": 9306,
      "Large": 9307,
      "Lau": 9308,
      "Liz": 9309,
      "Lester": 9310,
      "Mat": 9311,
      "M25": 9312,
      "Ni": 9313,
      "Nige": 9314,
      "Ow": 9315,
      "Point": 9316,
      "Pos": 9317,
      "Price": 9318,
      "Round": 9319,
      "Train": 9320,
      "Ur": 9321,
      "WA": 9322,
      "Win": 9323,
      "athe": 9324,
      "cca": 9325,
      "cadd": 9326,
      "ckey": 9327,
      "cuc": 9328,
      "euro": 9329,
      "ectual": 9330,
      "eBay": 9331,
      "fant": 9332,
      "fade": 9333,
      "flip": 9334,
      "gans": 9335,
      "hoo": 9336,
      "ios": 9337,
      "iod": 9338,
      "ivate": 9339,
      "kar": 9340,
[...]
